{
  "version": "1.0",
  "truncation": null,
  "padding": null,
  "added_tokens": [
    {
      "id": 0,
      "content": "[UNK]",
      "single_word": false,
      "lstrip": false,
      "rstrip": false,
      "normalized": false,
      "special": true
    },
    {
      "id": 1,
      "content": "[CLS]",
      "single_word": false,
      "lstrip": false,
      "rstrip": false,
      "normalized": false,
      "special": true
    },
    {
      "id": 2,
      "content": "[SEP]",
      "single_word": false,
      "lstrip": false,
      "rstrip": false,
      "normalized": false,
      "special": true
    },
    {
      "id": 3,
      "content": "[PAD]",
      "single_word": false,
      "lstrip": false,
      "rstrip": false,
      "normalized": false,
      "special": true
    },
    {
      "id": 4,
      "content": "[MASK]",
      "single_word": false,
      "lstrip": false,
      "rstrip": false,
      "normalized": false,
      "special": true
    }
  ],
  "normalizer": null,
  "pre_tokenizer": {
    "type": "Whitespace"
  },
  "post_processor": null,
  "decoder": null,
  "model": {
    "type": "BPE",
    "dropout": null,
    "unk_token": "[UNK]",
    "continuing_subword_prefix": null,
    "end_of_word_suffix": null,
    "fuse_unk": false,
    "byte_fallback": false,
    "ignore_merges": false,
    "vocab": {
      "[UNK]": 0,
      "[CLS]": 1,
      "[SEP]": 2,
      "[PAD]": 3,
      "[MASK]": 4,
      "0": 5,
      "1": 6,
      "2": 7,
      "3": 8,
      "4": 9,
      "5": 10,
      "6": 11,
      "7": 12,
      "8": 13,
      "9": 14,
      "_": 15,
      "a": 16,
      "b": 17,
      "c": 18,
      "d": 19,
      "e": 20,
      "f": 21,
      "g": 22,
      "h": 23,
      "i": 24,
      "j": 25,
      "k": 26,
      "l": 27,
      "m": 28,
      "n": 29,
      "o": 30,
      "p": 31,
      "q": 32,
      "r": 33,
      "s": 34,
      "t": 35,
      "u": 36,
      "v": 37,
      "w": 38,
      "x": 39,
      "y": 40,
      "z": 41,
      "ß": 42,
      "à": 43,
      "â": 44,
      "ä": 45,
      "å": 46,
      "ç": 47,
      "è": 48,
      "é": 49,
      "ê": 50,
      "ë": 51,
      "î": 52,
      "ô": 53,
      "ö": 54,
      "ù": 55,
      "û": 56,
      "ü": 57,
      "ł": 58,
      "œ": 59,
      "ż": 60,
      "а": 61,
      "あ": 62,
      "い": 63,
      "う": 64,
      "え": 65,
      "お": 66,
      "か": 67,
      "が": 68,
      "き": 69,
      "ぎ": 70,
      "く": 71,
      "け": 72,
      "こ": 73,
      "さ": 74,
      "し": 75,
      "じ": 76,
      "す": 77,
      "ず": 78,
      "せ": 79,
      "そ": 80,
      "た": 81,
      "だ": 82,
      "っ": 83,
      "つ": 84,
      "づ": 85,
      "て": 86,
      "で": 87,
      "と": 88,
      "ど": 89,
      "な": 90,
      "に": 91,
      "の": 92,
      "は": 93,
      "ば": 94,
      "ひ": 95,
      "び": 96,
      "へ": 97,
      "べ": 98,
      "ほ": 99,
      "ま": 100,
      "み": 101,
      "む": 102,
      "め": 103,
      "も": 104,
      "や": 105,
      "よ": 106,
      "ら": 107,
      "り": 108,
      "る": 109,
      "れ": 110,
      "わ": 111,
      "を": 112,
      "ん": 113,
      "ア": 114,
      "ィ": 115,
      "イ": 116,
      "ウ": 117,
      "ェ": 118,
      "エ": 119,
      "ク": 120,
      "コ": 121,
      "ゴ": 122,
      "サ": 123,
      "シ": 124,
      "ジ": 125,
      "ス": 126,
      "ズ": 127,
      "セ": 128,
      "タ": 129,
      "ッ": 130,
      "テ": 131,
      "デ": 132,
      "ト": 133,
      "ド": 134,
      "バ": 135,
      "パ": 136,
      "ビ": 137,
      "フ": 138,
      "ブ": 139,
      "プ": 140,
      "ベ": 141,
      "モ": 142,
      "ャ": 143,
      "ヤ": 144,
      "ュ": 145,
      "ョ": 146,
      "ラ": 147,
      "リ": 148,
      "ル": 149,
      "レ": 150,
      "ロ": 151,
      "ン": 152,
      "ー": 153,
      "一": 154,
      "七": 155,
      "三": 156,
      "上": 157,
      "下": 158,
      "不": 159,
      "与": 160,
      "专": 161,
      "且": 162,
      "両": 163,
      "並": 164,
      "个": 165,
      "中": 166,
      "为": 167,
      "久": 168,
      "义": 169,
      "之": 170,
      "了": 171,
      "予": 172,
      "争": 173,
      "事": 174,
      "二": 175,
      "于": 176,
      "互": 177,
      "五": 178,
      "交": 179,
      "产": 180,
      "享": 181,
      "人": 182,
      "仅": 183,
      "介": 184,
      "他": 185,
      "付": 186,
      "代": 187,
      "令": 188,
      "以": 189,
      "件": 190,
      "价": 191,
      "任": 192,
      "份": 193,
      "会": 194,
      "伝": 195,
      "估": 196,
      "但": 197,
      "位": 198,
      "体": 199,
      "何": 200,
      "作": 201,
      "併": 202,
      "使": 203,
      "例": 204,
      "供": 205,
      "依": 206,
      "侵": 207,
      "便": 208,
      "係": 209,
      "促": 210,
      "保": 211,
      "信": 212,
      "修": 213,
      "個": 214,
      "值": 215,
      "停": 216,
      "傳": 217,
      "僅": 218,
      "像": 219,
      "價": 220,
      "償": 221,
      "優": 222,
      "充": 223,
      "先": 224,
      "免": 225,
      "入": 226,
      "內": 227,
      "全": 228,
      "公": 229,
      "六": 230,
      "兰": 231,
      "共": 232,
      "关": 233,
      "其": 234,
      "具": 235,
      "内": 236,
      "再": 237,
      "写": 238,
      "冲": 239,
      "况": 240,
      "准": 241,
      "出": 242,
      "分": 243,
      "列": 244,
      "则": 245,
      "创": 246,
      "別": 247,
      "利": 248,
      "到": 249,
      "制": 250,
      "券": 251,
      "前": 252,
      "副": 253,
      "創": 254,
      "力": 255,
      "务": 256,
      "动": 257,
      "効": 258,
      "動": 259,
      "務": 260,
      "包": 261,
      "化": 262,
      "升": 263,
      "占": 264,
      "印": 265,
      "即": 266,
      "原": 267,
      "去": 268,
      "参": 269,
      "又": 270,
      "叉": 271,
      "及": 272,
      "双": 273,
      "反": 274,
      "发": 275,
      "取": 276,
      "受": 277,
      "口": 278,
      "另": 279,
      "可": 280,
      "各": 281,
      "合": 282,
      "同": 283,
      "名": 284,
      "向": 285,
      "否": 286,
      "含": 287,
      "告": 288,
      "味": 289,
      "和": 290,
      "品": 291,
      "售": 292,
      "唯": 293,
      "商": 294,
      "問": 295,
      "單": 296,
      "四": 297,
      "回": 298,
      "因": 299,
      "団": 300,
      "囲": 301,
      "国": 302,
      "國": 303,
      "圍": 304,
      "團": 305,
      "在": 306,
      "地": 307,
      "型": 308,
      "域": 309,
      "執": 310,
      "基": 311,
      "報": 312,
      "場": 313,
      "増": 314,
      "声": 315,
      "处": 316,
      "変": 317,
      "复": 318,
      "外": 319,
      "大": 320,
      "失": 321,
      "头": 322,
      "奏": 323,
      "如": 324,
      "始": 325,
      "姓": 326,
      "委": 327,
      "媒": 328,
      "子": 329,
      "字": 330,
      "存": 331,
      "學": 332,
      "守": 333,
      "完": 334,
      "定": 335,
      "宜": 336,
      "实": 337,
      "実": 338,
      "害": 339,
      "家": 340,
      "容": 341,
      "宽": 342,
      "对": 343,
      "导": 344,
      "対": 345,
      "将": 346,
      "將": 347,
      "專": 348,
      "尊": 349,
      "對": 350,
      "少": 351,
      "就": 352,
      "展": 353,
      "属": 354,
      "履": 355,
      "屬": 356,
      "己": 357,
      "已": 358,
      "布": 359,
      "希": 360,
      "带": 361,
      "帰": 362,
      "常": 363,
      "年": 364,
      "并": 365,
      "序": 366,
      "应": 367,
      "府": 368,
      "度": 369,
      "庫": 370,
      "建": 371,
      "式": 372,
      "引": 373,
      "当": 374,
      "录": 375,
      "形": 376,
      "影": 377,
      "律": 378,
      "後": 379,
      "従": 380,
      "得": 381,
      "必": 382,
      "志": 383,
      "応": 384,
      "思": 385,
      "性": 386,
      "悉": 387,
      "您": 388,
      "情": 389,
      "意": 390,
      "態": 391,
      "慧": 392,
      "應": 393,
      "成": 394,
      "或": 395,
      "所": 396,
      "手": 397,
      "托": 398,
      "执": 399,
      "承": 400,
      "技": 401,
      "投": 402,
      "択": 403,
      "护": 404,
      "押": 405,
      "担": 406,
      "拘": 407,
      "拠": 408,
      "拡": 409,
      "拥": 410,
      "括": 411,
      "持": 412,
      "指": 413,
      "损": 414,
      "据": 415,
      "授": 416,
      "排": 417,
      "採": 418,
      "接": 419,
      "控": 420,
      "推": 421,
      "掲": 422,
      "提": 423,
      "換": 424,
      "揭": 425,
      "損": 426,
      "撤": 427,
      "播": 428,
      "擁": 429,
      "擇": 430,
      "據": 431,
      "收": 432,
      "改": 433,
      "放": 434,
      "政": 435,
      "故": 436,
      "效": 437,
      "散": 438,
      "整": 439,
      "文": 440,
      "料": 441,
      "新": 442,
      "方": 443,
      "於": 444,
      "无": 445,
      "日": 446,
      "时": 447,
      "明": 448,
      "映": 449,
      "是": 450,
      "時": 451,
      "智": 452,
      "暗": 453,
      "曲": 454,
      "更": 455,
      "書": 456,
      "曾": 457,
      "最": 458,
      "月": 459,
      "有": 460,
      "服": 461,
      "望": 462,
      "期": 463,
      "木": 464,
      "未": 465,
      "本": 466,
      "机": 467,
      "权": 468,
      "材": 469,
      "束": 470,
      "条": 471,
      "来": 472,
      "松": 473,
      "构": 474,
      "果": 475,
      "查": 476,
      "标": 477,
      "校": 478,
      "核": 479,
      "根": 480,
      "格": 481,
      "案": 482,
      "档": 483,
      "條": 484,
      "棄": 485,
      "業": 486,
      "構": 487,
      "様": 488,
      "標": 489,
      "権": 490,
      "機": 491,
      "權": 492,
      "欠": 493,
      "次": 494,
      "款": 495,
      "止": 496,
      "正": 497,
      "此": 498,
      "步": 499,
      "段": 500,
      "毀": 501,
      "毎": 502,
      "每": 503,
      "比": 504,
      "民": 505,
      "永": 506,
      "求": 507,
      "法": 508,
      "注": 509,
      "活": 510,
      "添": 511,
      "渡": 512,
      "源": 513,
      "準": 514,
      "满": 515,
      "漏": 516,
      "演": 517,
      "点": 518,
      "為": 519,
      "無": 520,
      "然": 521,
      "照": 522,
      "營": 523,
      "版": 524,
      "物": 525,
      "特": 526,
      "犯": 527,
      "状": 528,
      "独": 529,
      "献": 530,
      "獨": 531,
      "现": 532,
      "現": 533,
      "球": 534,
      "理": 535,
      "生": 536,
      "產": 537,
      "用": 538,
      "由": 539,
      "申": 540,
      "画": 541,
      "留": 542,
      "當": 543,
      "発": 544,
      "發": 545,
      "白": 546,
      "的": 547,
      "益": 548,
      "盡": 549,
      "目": 550,
      "直": 551,
      "相": 552,
      "盾": 553,
      "眾": 554,
      "矛": 555,
      "知": 556,
      "確": 557,
      "示": 558,
      "票": 559,
      "禁": 560,
      "私": 561,
      "种": 562,
      "称": 563,
      "移": 564,
      "程": 565,
      "種": 566,
      "稱": 567,
      "空": 568,
      "突": 569,
      "立": 570,
      "競": 571,
      "符": 572,
      "第": 573,
      "等": 574,
      "箇": 575,
      "範": 576,
      "籍": 577,
      "粹": 578,
      "紀": 579,
      "約": 580,
      "純": 581,
      "素": 582,
      "終": 583,
      "組": 584,
      "結": 585,
      "絡": 586,
      "經": 587,
      "継": 588,
      "続": 589,
      "線": 590,
      "編": 591,
      "繼": 592,
      "續": 593,
      "约": 594,
      "级": 595,
      "终": 596,
      "结": 597,
      "维": 598,
      "置": 599,
      "署": 600,
      "義": 601,
      "翻": 602,
      "者": 603,
      "而": 604,
      "联": 605,
      "聲": 606,
      "職": 607,
      "能": 608,
      "脚": 609,
      "自": 610,
      "至": 611,
      "致": 612,
      "與": 613,
      "舊": 614,
      "色": 615,
      "若": 616,
      "英": 617,
      "華": 618,
      "著": 619,
      "薦": 620,
      "虞": 621,
      "號": 622,
      "衆": 623,
      "行": 624,
      "衍": 625,
      "術": 626,
      "补": 627,
      "表": 628,
      "被": 629,
      "装": 630,
      "補": 631,
      "製": 632,
      "複": 633,
      "要": 634,
      "見": 635,
      "規": 636,
      "視": 637,
      "规": 638,
      "解": 639,
      "言": 640,
      "訂": 641,
      "訊": 642,
      "記": 643,
      "許": 644,
      "訳": 645,
      "証": 646,
      "評": 647,
      "該": 648,
      "誉": 649,
      "認": 650,
      "語": 651,
      "誤": 652,
      "課": 653,
      "請": 654,
      "諾": 655,
      "證": 656,
      "譲": 657,
      "護": 658,
      "變": 659,
      "让": 660,
      "议": 661,
      "许": 662,
      "论": 663,
      "讼": 664,
      "证": 665,
      "诉": 666,
      "该": 667,
      "语": 668,
      "请": 669,
      "诺": 670,
      "象": 671,
      "負": 672,
      "財": 673,
      "責": 674,
      "貸": 675,
      "資": 676,
      "賠": 677,
      "質": 678,
      "贡": 679,
      "责": 680,
      "费": 681,
      "资": 682,
      "起": 683,
      "足": 684,
      "身": 685,
      "載": 686,
      "輯": 687,
      "輸": 688,
      "轉": 689,
      "转": 690,
      "软": 691,
      "辦": 692,
      "込": 693,
      "过": 694,
      "进": 695,
      "述": 696,
      "送": 697,
      "透": 698,
      "途": 699,
      "通": 700,
      "造": 701,
      "連": 702,
      "進": 703,
      "過": 704,
      "達": 705,
      "違": 706,
      "適": 707,
      "遭": 708,
      "遵": 709,
      "選": 710,
      "遺": 711,
      "部": 712,
      "釈": 713,
      "释": 714,
      "釋": 715,
      "重": 716,
      "金": 717,
      "針": 718,
      "錄": 719,
      "錯": 720,
      "録": 721,
      "销": 722,
      "開": 723,
      "間": 724,
      "関": 725,
      "關": 726,
      "间": 727,
      "阅": 728,
      "防": 729,
      "附": 730,
      "限": 731,
      "除": 732,
      "陥": 733,
      "随": 734,
      "際": 735,
      "隣": 736,
      "隨": 737,
      "隱": 738,
      "集": 739,
      "電": 740,
      "非": 741,
      "面": 742,
      "音": 743,
      "響": 744,
      "項": 745,
      "須": 746,
      "頒": 747,
      "領": 748,
      "類": 749,
      "顯": 750,
      "须": 751,
      "首": 752,
      "體": 753,
      "默": 754,
      "黙": 755,
      "齟": 756,
      "齬": 757,
      "th": 758,
      "er": 759,
      "or": 760,
      "on": 761,
      "en": 762,
      "in": 763,
      "an": 764,
      "the": 765,
      "ti": 766,
      "re": 767,
      "li": 768,
      "se": 769,
      "of": 770,
      "is": 771,
      "ed": 772,
      "tion": 773,
      "lic": 774,
      "al": 775,
      "co": 776,
      "ri": 777,
      "at": 778,
      "ou": 779,
      "es": 780,
      "to": 781,
      "licen": 782,
      "and": 783,
      "ar": 784,
      "ent": 785,
      "ing": 786,
      "le": 787,
      "ro": 788,
      "license": 789,
      "ch": 790,
      "di": 791,
      "de": 792,
      "ce": 793,
      "for": 794,
      "it": 795,
      "you": 796,
      "no": 797,
      "con": 798,
      "ation": 799,
      "un": 800,
      "this": 801,
      "ut": 802,
      "any": 803,
      "ver": 804,
      "wi": 805,
      "st": 806,
      "ma": 807,
      "der": 808,
      "pro": 809,
      "as": 810,
      "ab": 811,
      "rib": 812,
      "si": 813,
      "su": 814,
      "trib": 815,
      "wor": 816,
      "ve": 817,
      "ex": 818,
      "work": 819,
      "ct": 820,
      "are": 821,
      "gh": 822,
      "ter": 823,
      "ly": 824,
      "fi": 825,
      "ther": 826,
      "be": 827,
      "ght": 828,
      "right": 829,
      "dis": 830,
      "ment": 831,
      "cl": 832,
      "that": 833,
      "with": 834,
      "ty": 835,
      "cop": 836,
      "by": 837,
      "com": 838,
      "tribut": 839,
      "ran": 840,
      "ci": 841,
      "mo": 842,
      "me": 843,
      "not": 844,
      "all": 845,
      "ction": 846,
      "per": 847,
      "vi": 848,
      "copy": 849,
      "sion": 850,
      "ge": 851,
      "pu": 852,
      "under": 853,
      "tw": 854,
      "use": 855,
      "wh": 856,
      "ra": 857,
      "modi": 858,
      "sof": 859,
      "term": 860,
      "do": 861,
      "other": 862,
      "par": 863,
      "tware": 864,
      "software": 865,
      "able": 866,
      "sh": 867,
      "cu": 868,
      "res": 869,
      "clu": 870,
      "ai": 871,
      "ll": 872,
      "ap": 873,
      "code": 874,
      "form": 875,
      "modifi": 876,
      "may": 877,
      "such": 878,
      "pub": 879,
      "ow": 880,
      "if": 881,
      "qu": 882,
      "du": 883,
      "version": 884,
      "rights": 885,
      "inclu": 886,
      "ree": 887,
      "ac": 888,
      "tive": 889,
      "distribut": 890,
      "terms": 891,
      "tions": 892,
      "ad": 893,
      "ag": 894,
      "our": 895,
      "ate": 896,
      "copyright": 897,
      "app": 898,
      "au": 899,
      "ig": 900,
      "te": 901,
      "ded": 902,
      "mit": 903,
      "ne": 904,
      "ations": 905,
      "licens": 906,
      "section": 907,
      "ding": 908,
      "ource": 909,
      "noti": 910,
      "cont": 911,
      "iv": 912,
      "mu": 913,
      "public": 914,
      "gen": 915,
      "tribu": 916,
      "__": 917,
      "rom": 918,
      "from": 919,
      "enti": 920,
      "ect": 921,
      "so": 922,
      "source": 923,
      "docu": 924,
      "document": 925,
      "comp": 926,
      "cover": 927,
      "out": 928,
      "ose": 929,
      "contribut": 930,
      "ces": 931,
      "la": 932,
      "ere": 933,
      "ted": 934,
      "provi": 935,
      "lo": 936,
      "lity": 937,
      "licensor": 938,
      "gran": 939,
      "comm": 940,
      "mp": 941,
      "contributor": 942,
      "fer": 943,
      "sub": 944,
      "ility": 945,
      "arran": 946,
      "modific": 947,
      "ary": 948,
      "cre": 949,
      "orig": 950,
      "origin": 951,
      "ke": 952,
      "must": 953,
      "ties": 954,
      "ative": 955,
      "ich": 956,
      "tribution": 957,
      "ain": 958,
      "mean": 959,
      "your": 960,
      "des": 961,
      "ated": 962,
      "distribute": 963,
      "original": 964,
      "warran": 965,
      "gra": 966,
      "us": 967,
      "ext": 968,
      "shall": 969,
      "aim": 970,
      "claim": 971,
      "pres": 972,
      "les": 973,
      "means": 974,
      "condi": 975,
      "limit": 976,
      "ase": 977,
      "notice": 978,
      "gram": 979,
      "its": 980,
      "produ": 981,
      "including": 982,
      "provided": 983,
      "ability": 984,
      "program": 985,
      "conditions": 986,
      "without": 987,
      "pe": 988,
      "agree": 989,
      "ant": 990,
      "here": 991,
      "covered": 992,
      "which": 993,
      "deriv": 994,
      "ons": 995,
      "ject": 996,
      "da": 997,
      "por": 998,
      "ld": 999,
      "ges": 1000,
      "free": 1001,
      "cip": 1002,
      "ts": 1003,
      "ach": 1004,
      "modifications": 1005,
      "ten": 1006,
      "ail": 1007,
      "ir": 1008,
      "distribution": 1009,
      "ance": 1010,
      "ur": 1011,
      "lle": 1012,
      "ic": 1013,
      "works": 1014,
      "modified": 1015,
      "granted": 1016,
      "pat": 1017,
      "imp": 1018,
      "tit": 1019,
      "will": 1020,
      "agreement": 1021,
      "mis": 1022,
      "ha": 1023,
      "thor": 1024,
      "patent": 1025,
      "cep": 1026,
      "indi": 1027,
      "author": 1028,
      "ally": 1029,
      "qui": 1030,
      "licensed": 1031,
      "stand": 1032,
      "sch": 1033,
      "cor": 1034,
      "ol": 1035,
      "one": 1036,
      "ini": 1037,
      "dat": 1038,
      "fy": 1039,
      "lar": 1040,
      "erci": 1041,
      "pur": 1042,
      "law": 1043,
      "age": 1044,
      "ung": 1045,
      "ob": 1046,
      "liz": 1047,
      "mat": 1048,
      "av": 1049,
      "ient": 1050,
      "pose": 1051,
      "____": 1052,
      "rect": 1053,
      "dama": 1054,
      "applic": 1055,
      "recip": 1056,
      "recipient": 1057,
      "go": 1058,
      "mission": 1059,
      "ever": 1060,
      "ies": 1061,
      "ber": 1062,
      "wise": 1063,
      "spe": 1064,
      "sa": 1065,
      "purpose": 1066,
      "have": 1067,
      "termin": 1068,
      "fo": 1069,
      "end": 1070,
      "resp": 1071,
      "quire": 1072,
      "make": 1073,
      "expres": 1074,
      "cept": 1075,
      "derivative": 1076,
      "perform": 1077,
      "otherwise": 1078,
      "speci": 1079,
      "pre": 1080,
      "enz": 1081,
      "lizenz": 1082,
      "fr": 1083,
      "llow": 1084,
      "op": 1085,
      "follow": 1086,
      "liability": 1087,
      "warranty": 1088,
      "but": 1089,
      "permission": 1090,
      "subject": 1091,
      "disclaim": 1092,
      "leg": 1093,
      "has": 1094,
      "damages": 1095,
      "um": 1096,
      "lish": 1097,
      "ec": 1098,
      "pri": 1099,
      "na": 1100,
      "copies": 1101,
      "text": 1102,
      "bin": 1103,
      "product": 1104,
      "parti": 1105,
      "party": 1106,
      "die": 1107,
      "dem": 1108,
      "we": 1109,
      "vis": 1110,
      "tic": 1111,
      "require": 1112,
      "colle": 1113,
      "sib": 1114,
      "inter": 1115,
      "each": 1116,
      "med": 1117,
      "non": 1118,
      "def": 1119,
      "avail": 1120,
      "made": 1121,
      "express": 1122,
      "ack": 1123,
      "commons": 1124,
      "ove": 1125,
      "above": 1126,
      "warranties": 1127,
      "following": 1128,
      "po": 1129,
      "ting": 1130,
      "creative": 1131,
      "led": 1132,
      "br": 1133,
      "tran": 1134,
      "publish": 1135,
      "cess": 1136,
      "there": 1137,
      "eri": 1138,
      "lied": 1139,
      "visi": 1140,
      "ser": 1141,
      "who": 1142,
      "tain": 1143,
      "licence": 1144,
      "available": 1145,
      "chan": 1146,
      "limitation": 1147,
      "part": 1148,
      "ff": 1149,
      "materi": 1150,
      "va": 1151,
      "modify": 1152,
      "material": 1153,
      "file": 1154,
      "exclu": 1155,
      "den": 1156,
      "trans": 1157,
      "offer": 1158,
      "include": 1159,
      "ein": 1160,
      "ither": 1161,
      "ca": 1162,
      "ev": 1163,
      "utz": 1164,
      "gener": 1165,
      "used": 1166,
      "lich": 1167,
      "sections": 1168,
      "up": 1169,
      "applicable": 1170,
      "ual": 1171,
      "cons": 1172,
      "pla": 1173,
      "ard": 1174,
      "publicly": 1175,
      "sequ": 1176,
      "ark": 1177,
      "contain": 1178,
      "documentation": 1179,
      "infr": 1180,
      "infring": 1181,
      "id": 1182,
      "ory": 1183,
      "stri": 1184,
      "how": 1185,
      "does": 1186,
      "only": 1187,
      "ess": 1188,
      "act": 1189,
      "tra": 1190,
      "provisi": 1191,
      "legal": 1192,
      "wri": 1193,
      "reg": 1194,
      "inform": 1195,
      "deve": 1196,
      "oun": 1197,
      "develo": 1198,
      "oder": 1199,
      "modification": 1200,
      "ous": 1201,
      "notices": 1202,
      "libr": 1203,
      "commerci": 1204,
      "library": 1205,
      "disclaimer": 1206,
      "implied": 1207,
      "initi": 1208,
      "either": 1209,
      "extent": 1210,
      "addi": 1211,
      "these": 1212,
      "particu": 1213,
      "own": 1214,
      "particular": 1215,
      "reas": 1216,
      "ib": 1217,
      "ments": 1218,
      "ph": 1219,
      "main": 1220,
      "now": 1221,
      "mer": 1222,
      "pl": 1223,
      "entity": 1224,
      "reason": 1225,
      "can": 1226,
      "af": 1227,
      "ste": 1228,
      "ether": 1229,
      "ising": 1230,
      "whether": 1231,
      "20": 1232,
      "direct": 1233,
      "rel": 1234,
      "user": 1235,
      "combin": 1236,
      "pers": 1237,
      "pr": 1238,
      "ay": 1239,
      "exec": 1240,
      "data": 1241,
      "ound": 1242,
      "versions": 1243,
      "execut": 1244,
      "gn": 1245,
      "sed": 1246,
      "licenses": 1247,
      "ctions": 1248,
      "addition": 1249,
      "hol": 1250,
      "restri": 1251,
      "apply": 1252,
      "respon": 1253,
      "except": 1254,
      "title": 1255,
      "information": 1256,
      "limited": 1257,
      "ure": 1258,
      "holder": 1259,
      "time": 1260,
      "ased": 1261,
      "commercial": 1262,
      "reprodu": 1263,
      "man": 1264,
      "pos": 1265,
      "und": 1266,
      "permit": 1267,
      "vern": 1268,
      "et": 1269,
      "those": 1270,
      "govern": 1271,
      "medi": 1272,
      "rece": 1273,
      "initial": 1274,
      "ss": 1275,
      "distributed": 1276,
      "ii": 1277,
      "specifi": 1278,
      "thir": 1279,
      "been": 1280,
      "parties": 1281,
      "schutz": 1282,
      "mak": 1283,
      "stat": 1284,
      "il": 1285,
      "ip": 1286,
      "open": 1287,
      "ist": 1288,
      "vidu": 1289,
      "individu": 1290,
      "general": 1291,
      "gegen": 1292,
      "third": 1293,
      "ctive": 1294,
      "rech": 1295,
      "than": 1296,
      "their": 1297,
      "new": 1298,
      "ity": 1299,
      "where": 1300,
      "licensee": 1301,
      "hereby": 1302,
      "ore": 1303,
      "ents": 1304,
      "however": 1305,
      "ear": 1306,
      "contro": 1307,
      "roy": 1308,
      "less": 1309,
      "19": 1310,
      "infringe": 1311,
      "grant": 1312,
      "required": 1313,
      "ould": 1314,
      "royal": 1315,
      "ind": 1316,
      "termination": 1317,
      "sup": 1318,
      "ential": 1319,
      "list": 1320,
      "executable": 1321,
      "el": 1322,
      "name": 1323,
      "ved": 1324,
      "demark": 1325,
      "vari": 1326,
      "trademark": 1327,
      "ont": 1328,
      "gegenstand": 1329,
      "refer": 1330,
      "im": 1331,
      "ati": 1332,
      "fu": 1333,
      "files": 1334,
      "ract": 1335,
      "sive": 1336,
      "claims": 1337,
      "am": 1338,
      "ute": 1339,
      "schutzgegenstand": 1340,
      "bo": 1341,
      "desc": 1342,
      "char": 1343,
      "ence": 1344,
      "exerci": 1345,
      "way": 1346,
      "ru": 1347,
      "ungen": 1348,
      "ship": 1349,
      "corpor": 1350,
      "possib": 1351,
      "fit": 1352,
      "________": 1353,
      "tten": 1354,
      "ine": 1355,
      "hib": 1356,
      "tributions": 1357,
      "fe": 1358,
      "then": 1359,
      "dies": 1360,
      "indirect": 1361,
      "cer": 1362,
      "same": 1363,
      "person": 1364,
      "consequ": 1365,
      "200": 1366,
      "individual": 1367,
      "lig": 1368,
      "written": 1369,
      "rele": 1370,
      "arising": 1371,
      "ves": 1372,
      "also": 1373,
      "ong": 1374,
      "collective": 1375,
      "jur": 1376,
      "force": 1377,
      "play": 1378,
      "pack": 1379,
      "contract": 1380,
      "sel": 1381,
      "sul": 1382,
      "iz": 1383,
      "more": 1384,
      "zu": 1385,
      "developer": 1386,
      "ffer": 1387,
      "dent": 1388,
      "uni": 1389,
      "exercise": 1390,
      "gnu": 1391,
      "resul": 1392,
      "repres": 1393,
      "eff": 1394,
      "proper": 1395,
      "datab": 1396,
      "differ": 1397,
      "accept": 1398,
      "grants": 1399,
      "respect": 1400,
      "permitted": 1401,
      "199": 1402,
      "liable": 1403,
      "od": 1404,
      "display": 1405,
      "create": 1406,
      "exclusive": 1407,
      "database": 1408,
      "based": 1409,
      "est": 1410,
      "set": 1411,
      "que": 1412,
      "identi": 1413,
      "inte": 1414,
      "conve": 1415,
      "expressly": 1416,
      "hibit": 1417,
      "convey": 1418,
      "gi": 1419,
      "giv": 1420,
      "sy": 1421,
      "after": 1422,
      "add": 1423,
      "found": 1424,
      "additional": 1425,
      "thereof": 1426,
      "ses": 1427,
      "upon": 1428,
      "control": 1429,
      "dieser": 1430,
      "variant": 1431,
      "commun": 1432,
      "consequential": 1433,
      "object": 1434,
      "oblig": 1435,
      "10": 1436,
      "package": 1437,
      "ign": 1438,
      "infringement": 1439,
      "special": 1440,
      "defini": 1441,
      "event": 1442,
      "provision": 1443,
      "vo": 1444,
      "reser": 1445,
      "ness": 1446,
      "tor": 1447,
      "design": 1448,
      "reproduce": 1449,
      "consi": 1450,
      "servi": 1451,
      "ating": 1452,
      "adap": 1453,
      "ele": 1454,
      "ger": 1455,
      "mes": 1456,
      "org": 1457,
      "remain": 1458,
      "when": 1459,
      "ite": 1460,
      "num": 1461,
      "enforce": 1462,
      "ble": 1463,
      "included": 1464,
      "fitness": 1465,
      "consider": 1466,
      "format": 1467,
      "receiv": 1468,
      "using": 1469,
      "wer": 1470,
      "necess": 1471,
      "derived": 1472,
      "juris": 1473,
      "invariant": 1474,
      "recipients": 1475,
      "necessary": 1476,
      "rou": 1477,
      "tech": 1478,
      "chant": 1479,
      "matic": 1480,
      "portions": 1481,
      "merchant": 1482,
      "bel": 1483,
      "aus": 1484,
      "prior": 1485,
      "net": 1486,
      "nowled": 1487,
      "reasonable": 1488,
      "some": 1489,
      "cho": 1490,
      "dig": 1491,
      "cident": 1492,
      "kind": 1493,
      "cal": 1494,
      "read": 1495,
      "incident": 1496,
      "auf": 1497,
      "compli": 1498,
      "property": 1499,
      "unless": 1500,
      "incidental": 1501,
      "om": 1502,
      "even": 1503,
      "number": 1504,
      "bre": 1505,
      "lat": 1506,
      "thing": 1507,
      "inst": 1508,
      "them": 1509,
      "vised": 1510,
      "case": 1511,
      "describ": 1512,
      "llect": 1513,
      "intellect": 1514,
      "foundation": 1515,
      "tis": 1516,
      "provide": 1517,
      "ical": 1518,
      "provisions": 1519,
      "attribution": 1520,
      "loss": 1521,
      "intellectual": 1522,
      "dur": 1523,
      "alter": 1524,
      "hereunder": 1525,
      "represent": 1526,
      "authors": 1527,
      "royalty": 1528,
      "merchantability": 1529,
      "digit": 1530,
      "charge": 1531,
      "jurisdi": 1532,
      "min": 1533,
      "wide": 1534,
      "propri": 1535,
      "published": 1536,
      "below": 1537,
      "standard": 1538,
      "they": 1539,
      "gu": 1540,
      "mi": 1541,
      "responsib": 1542,
      "wai": 1543,
      "texts": 1544,
      "contributors": 1545,
      "ue": 1546,
      "sie": 1547,
      "comput": 1548,
      "dep": 1549,
      "auto": 1550,
      "vali": 1551,
      "ür": 1552,
      "än": 1553,
      "appear": 1554,
      "put": 1555,
      "allow": 1556,
      "port": 1557,
      "lation": 1558,
      "comply": 1559,
      "constit": 1560,
      "owner": 1561,
      "ft": 1562,
      "ass": 1563,
      "change": 1564,
      "specific": 1565,
      "ht": 1566,
      "entire": 1567,
      "hal": 1568,
      "unter": 1569,
      "inten": 1570,
      "subsequ": 1571,
      "subsequent": 1572,
      "men": 1573,
      "includes": 1574,
      "performance": 1575,
      "again": 1576,
      "int": 1577,
      "every": 1578,
      "compliance": 1579,
      "automatic": 1580,
      "lies": 1581,
      "12": 1582,
      "tled": 1583,
      "making": 1584,
      "fail": 1585,
      "ner": 1586,
      "sell": 1587,
      "against": 1588,
      "should": 1589,
      "herein": 1590,
      "cause": 1591,
      "action": 1592,
      "ww": 1593,
      "exp": 1594,
      "cur": 1595,
      "bed": 1596,
      "reed": 1597,
      "communic": 1598,
      "he": 1599,
      "incorpor": 1600,
      "fa": 1601,
      "ze": 1602,
      "world": 1603,
      "endor": 1604,
      "obligations": 1605,
      "fir": 1606,
      "apple": 1607,
      "restrict": 1608,
      "amp": 1609,
      "lin": 1610,
      "within": 1611,
      "terminate": 1612,
      "applies": 1613,
      "soci": 1614,
      "governed": 1615,
      "hr": 1616,
      "entitled": 1617,
      "contains": 1618,
      "products": 1619,
      "red": 1620,
      "state": 1621,
      "vious": 1622,
      "computer": 1623,
      "previous": 1624,
      "lan": 1625,
      "ron": 1626,
      "access": 1627,
      "defin": 1628,
      "ast": 1629,
      "ven": 1630,
      "dra": 1631,
      "examp": 1632,
      "copying": 1633,
      "whole": 1634,
      "automatically": 1635,
      "received": 1636,
      "page": 1637,
      "stated": 1638,
      "self": 1639,
      "given": 1640,
      "endorse": 1641,
      "purposes": 1642,
      "vor": 1643,
      "sto": 1644,
      "into": 1645,
      "tig": 1646,
      "rip": 1647,
      "credi": 1648,
      "fee": 1649,
      "nowledge": 1650,
      "von": 1651,
      "sur": 1652,
      "standing": 1653,
      "defined": 1654,
      "date": 1655,
      "nor": 1656,
      "throu": 1657,
      "reserved": 1658,
      "through": 1659,
      "combination": 1660,
      "bas": 1661,
      "ys": 1662,
      "contribution": 1663,
      "exhibit": 1664,
      "ective": 1665,
      "users": 1666,
      "identifi": 1667,
      "geber": 1668,
      "preser": 1669,
      "syste": 1670,
      "een": 1671,
      "ie": 1672,
      "rac": 1673,
      "lizenzgeber": 1674,
      "cost": 1675,
      "conne": 1676,
      "licensing": 1677,
      "matter": 1678,
      "adapt": 1679,
      "mark": 1680,
      "intended": 1681,
      "separ": 1682,
      "distributions": 1683,
      "fore": 1684,
      "prote": 1685,
      "considered": 1686,
      "inc": 1687,
      "lete": 1688,
      "medium": 1689,
      "ta": 1690,
      "lear": 1691,
      "itself": 1692,
      "basis": 1693,
      "possibility": 1694,
      "bes": 1695,
      "ish": 1696,
      "ably": 1697,
      "full": 1698,
      "ced": 1699,
      "patents": 1700,
      "related": 1701,
      "sublicense": 1702,
      "place": 1703,
      "clear": 1704,
      "least": 1705,
      "cord": 1706,
      "11": 1707,
      "fur": 1708,
      "connection": 1709,
      "what": 1710,
      "names": 1711,
      "eine": 1712,
      "directly": 1713,
      "makes": 1714,
      "correspon": 1715,
      "develop": 1716,
      "emp": 1717,
      "ni": 1718,
      "indem": 1719,
      "obtain": 1720,
      "corresponding": 1721,
      "cern": 1722,
      "application": 1723,
      "share": 1724,
      "manner": 1725,
      "contents": 1726,
      "ben": 1727,
      "ors": 1728,
      "constitut": 1729,
      "gli": 1730,
      "separate": 1731,
      "verb": 1732,
      "different": 1733,
      "system": 1734,
      "requ": 1735,
      "being": 1736,
      "binary": 1737,
      "programs": 1738,
      "credit": 1739,
      "cation": 1740,
      "theory": 1741,
      "created": 1742,
      "supp": 1743,
      "ale": 1744,
      "promin": 1745,
      "authoriz": 1746,
      "prominent": 1747,
      "retain": 1748,
      "icht": 1749,
      "good": 1750,
      "enforceable": 1751,
      "nutz": 1752,
      "collection": 1753,
      "publisher": 1754,
      "elect": 1755,
      "larger": 1756,
      "appropri": 1757,
      "gence": 1758,
      "mach": 1759,
      "valid": 1760,
      "stan": 1761,
      "negli": 1762,
      "negligence": 1763,
      "eu": 1764,
      "associ": 1765,
      "tp": 1766,
      "distributing": 1767,
      "laws": 1768,
      "advised": 1769,
      "services": 1770,
      "breach": 1771,
      "behal": 1772,
      "equ": 1773,
      "ful": 1774,
      "atim": 1775,
      "http": 1776,
      "verbatim": 1777,
      "für": 1778,
      "would": 1779,
      "forth": 1780,
      "prin": 1781,
      "documents": 1782,
      "writing": 1783,
      "resulting": 1784,
      "effect": 1785,
      "network": 1786,
      "exer": 1787,
      "werk": 1788,
      "beding": 1789,
      "appropriate": 1790,
      "nen": 1791,
      "nothing": 1792,
      "simi": 1793,
      "log": 1794,
      "tort": 1795,
      "similar": 1796,
      "over": 1797,
      "met": 1798,
      "air": 1799,
      "reasonably": 1800,
      "lement": 1801,
      "fun": 1802,
      "prof": 1803,
      "sale": 1804,
      "sure": 1805,
      "front": 1806,
      "support": 1807,
      "long": 1808,
      "stru": 1809,
      "fici": 1810,
      "changes": 1811,
      "restrictions": 1812,
      "ry": 1813,
      "constitutes": 1814,
      "ving": 1815,
      "contin": 1816,
      "plac": 1817,
      "schutzgegenstandes": 1818,
      "bedingungen": 1819,
      "ih": 1820,
      "redistributions": 1821,
      "choose": 1822,
      "preserve": 1823,
      "ational": 1824,
      "exerc": 1825,
      "indic": 1826,
      "ungs": 1827,
      "font": 1828,
      "oper": 1829,
      "particip": 1830,
      "jurisdiction": 1831,
      "example": 1832,
      "tigation": 1833,
      "13": 1834,
      "tre": 1835,
      "betw": 1836,
      "depend": 1837,
      "indemn": 1838,
      "between": 1839,
      "bus": 1840,
      "nicht": 1841,
      "ins": 1842,
      "iness": 1843,
      "ann": 1844,
      "litigation": 1845,
      "further": 1846,
      "exercising": 1847,
      "business": 1848,
      "greg": 1849,
      "une": 1850,
      "suit": 1851,
      "first": 1852,
      "digital": 1853,
      "associated": 1854,
      "know": 1855,
      "effective": 1856,
      "impose": 1857,
      "rechte": 1858,
      "ronic": 1859,
      "electronic": 1860,
      "ju": 1861,
      "van": 1862,
      "accomp": 1863,
      "government": 1864,
      "see": 1865,
      "aggreg": 1866,
      "requirements": 1867,
      "ken": 1868,
      "viol": 1869,
      "compon": 1870,
      "give": 1871,
      "ive": 1872,
      "arch": 1873,
      "contributions": 1874,
      "sole": 1875,
      "complete": 1876,
      "formats": 1877,
      "techn": 1878,
      "redistribution": 1879,
      "avo": 1880,
      "later": 1881,
      "ownership": 1882,
      "cour": 1883,
      "relating": 1884,
      "definitions": 1885,
      "behalf": 1886,
      "det": 1887,
      "lled": 1888,
      "possible": 1889,
      "participant": 1890,
      "national": 1891,
      "materials": 1892,
      "cure": 1893,
      "mm": 1894,
      "ival": 1895,
      "released": 1896,
      "link": 1897,
      "cou": 1898,
      "anyone": 1899,
      "need": 1900,
      "definition": 1901,
      "ged": 1902,
      "unt": 1903,
      "uti": 1904,
      "ates": 1905,
      "durch": 1906,
      "parent": 1907,
      "specified": 1908,
      "described": 1909,
      "avoid": 1910,
      "arrange": 1911,
      "das": 1912,
      "sent": 1913,
      "remo": 1914,
      "compil": 1915,
      "portion": 1916,
      "transparent": 1917,
      "like": 1918,
      "consent": 1919,
      "rent": 1920,
      "rcu": 1921,
      "circu": 1922,
      "dependent": 1923,
      "royalties": 1924,
      "trademarks": 1925,
      "survi": 1926,
      "aff": 1927,
      "freed": 1928,
      "transfer": 1929,
      "relation": 1930,
      "survive": 1931,
      "freedom": 1932,
      "sation": 1933,
      "mum": 1934,
      "both": 1935,
      "bt": 1936,
      "run": 1937,
      "redistribute": 1938,
      "organ": 1939,
      "ware": 1940,
      "als": 1941,
      "unmodified": 1942,
      "exemp": 1943,
      "representations": 1944,
      "langu": 1945,
      "was": 1946,
      "another": 1947,
      "ries": 1948,
      "sical": 1949,
      "entities": 1950,
      "diese": 1951,
      "corporation": 1952,
      "________________": 1953,
      "incorporated": 1954,
      "ris": 1955,
      "combined": 1956,
      "acceptance": 1957,
      "language": 1958,
      "dou": 1959,
      "nat": 1960,
      "adaptation": 1961,
      "independent": 1962,
      "limitations": 1963,
      "liche": 1964,
      "receive": 1965,
      "responsible": 1966,
      "ures": 1967,
      "year": 1968,
      "art": 1969,
      "translation": 1970,
      "refers": 1971,
      "affect": 1972,
      "word": 1973,
      "web": 1974,
      "regard": 1975,
      "equival": 1976,
      "doubt": 1977,
      "promo": 1978,
      "loy": 1979,
      "contained": 1980,
      "holders": 1981,
      "back": 1982,
      "resource": 1983,
      "caused": 1984,
      "ls": 1985,
      "sing": 1986,
      "vol": 1987,
      "along": 1988,
      "media": 1989,
      "authorized": 1990,
      "equivalent": 1991,
      "prac": 1992,
      "ort": 1993,
      "install": 1994,
      "vant": 1995,
      "others": 1996,
      "accord": 1997,
      "covers": 1998,
      "ep": 1999,
      "ple": 2000,
      "artic": 2001,
      "machine": 2002,
      "continue": 2003,
      "article": 2004,
      "order": 2005,
      "alone": 2006,
      "acknowledge": 2007,
      "worldwide": 2008,
      "profits": 2009,
      "regu": 2010,
      "maintain": 2011,
      "ization": 2012,
      "avoidance": 2013,
      "circum": 2014,
      "ima": 2015,
      "assu": 2016,
      "soever": 2017,
      "exclusion": 2018,
      "goods": 2019,
      "ml": 2020,
      "pi": 2021,
      "secon": 2022,
      "eder": 2023,
      "dee": 2024,
      "ited": 2025,
      "withstanding": 2026,
      "notwithstanding": 2027,
      "compati": 2028,
      "certain": 2029,
      "exempl": 2030,
      "days": 2031,
      "whatsoever": 2032,
      "deemed": 2033,
      "nolog": 2034,
      "sign": 2035,
      "collect": 2036,
      "technolog": 2037,
      "ho": 2038,
      "site": 2039,
      "rily": 2040,
      "manual": 2041,
      "concern": 2042,
      "mel": 2043,
      "readable": 2044,
      "sam": 2045,
      "uses": 2046,
      "tet": 2047,
      "stating": 2048,
      "exemplary": 2049,
      "vre": 2050,
      "damage": 2051,
      "containing": 2052,
      "stell": 2053,
      "indirectly": 2054,
      "result": 2055,
      "failure": 2056,
      "www": 2057,
      "function": 2058,
      "hist": 2059,
      "über": 2060,
      "qua": 2061,
      "cording": 2062,
      "terminated": 2063,
      "recht": 2064,
      "wn": 2065,
      "process": 2066,
      "mechan": 2067,
      "whose": 2068,
      "contact": 2069,
      "well": 2070,
      "fut": 2071,
      "ers": 2072,
      "excep": 2073,
      "future": 2074,
      "ps": 2075,
      "lie": 2076,
      "prohibit": 2077,
      "aid": 2078,
      "location": 2079,
      "phy": 2080,
      "states": 2081,
      "option": 2082,
      "release": 2083,
      "protect": 2084,
      "öff": 2085,
      "licit": 2086,
      "vers": 2087,
      "agra": 2088,
      "promote": 2089,
      "öffent": 2090,
      "cy": 2091,
      "distributor": 2092,
      "descrip": 2093,
      "conf": 2094,
      "intact": 2095,
      "risk": 2096,
      "modu": 2097,
      "paragra": 2098,
      "titute": 2099,
      "paragraph": 2100,
      "gü": 2101,
      "rup": 2102,
      "asser": 2103,
      "titles": 2104,
      "iii": 2105,
      "item": 2106,
      "added": 2107,
      "pet": 2108,
      "ldap": 2109,
      "having": 2110,
      "authorship": 2111,
      "excluding": 2112,
      "openldap": 2113,
      "communication": 2114,
      "detail": 2115,
      "alle": 2116,
      "ings": 2117,
      "perpet": 2118,
      "via": 2119,
      "permissions": 2120,
      "interpre": 2121,
      "digitally": 2122,
      "pag": 2123,
      "ihnen": 2124,
      "deal": 2125,
      "compilation": 2126,
      "öffentlich": 2127,
      "bra": 2128,
      "ok": 2129,
      "pay": 2130,
      "thus": 2131,
      "ately": 2132,
      "provides": 2133,
      "keep": 2134,
      "rechts": 2135,
      "jurisdictions": 2136,
      "base": 2137,
      "hin": 2138,
      "mber": 2139,
      "said": 2140,
      "ans": 2141,
      "formed": 2142,
      "addres": 2143,
      "designed": 2144,
      "aggregate": 2145,
      "technical": 2146,
      "second": 2147,
      "aque": 2148,
      "nal": 2149,
      "oeu": 2150,
      "sc": 2151,
      "ward": 2152,
      "lifor": 2153,
      "unenforceable": 2154,
      "abs": 2155,
      "licensable": 2156,
      "califor": 2157,
      "disclaimers": 2158,
      "designated": 2159,
      "organization": 2160,
      "californi": 2161,
      "bit": 2162,
      "lt": 2163,
      "count": 2164,
      "transl": 2165,
      "responsibility": 2166,
      "allowed": 2167,
      "explicit": 2168,
      "placed": 2169,
      "accompany": 2170,
      "california": 2171,
      "due": 2172,
      "sche": 2173,
      "offers": 2174,
      "face": 2175,
      "violation": 2176,
      "ré": 2177,
      "uri": 2178,
      "wä": 2179,
      "ested": 2180,
      "united": 2181,
      "igen": 2182,
      "interface": 2183,
      "consist": 2184,
      "phon": 2185,
      "waiver": 2186,
      "wir": 2187,
      "car": 2188,
      "gpl": 2189,
      "zus": 2190,
      "ency": 2191,
      "meas": 2192,
      "acquire": 2193,
      "sol": 2194,
      "logo": 2195,
      "cast": 2196,
      "statut": 2197,
      "immedi": 2198,
      "history": 2199,
      "absence": 2200,
      "cap": 2201,
      "dro": 2202,
      "get": 2203,
      "satis": 2204,
      "offered": 2205,
      "compatible": 2206,
      "description": 2207,
      "secondary": 2208,
      "cing": 2209,
      "nit": 2210,
      "condition": 2211,
      "regar": 2212,
      "owned": 2213,
      "individuals": 2214,
      "statutory": 2215,
      "het": 2216,
      "becom": 2217,
      "cannot": 2218,
      "current": 2219,
      "perpetual": 2220,
      "regarding": 2221,
      "hen": 2222,
      "sen": 2223,
      "ciel": 2224,
      "giciel": 2225,
      "scrip": 2226,
      "fair": 2227,
      "ism": 2228,
      "most": 2229,
      "pré": 2230,
      "clearly": 2231,
      "practic": 2232,
      "regulation": 2233,
      "mechanism": 2234,
      "cc": 2235,
      "eng": 2236,
      "agreed": 2237,
      "substan": 2238,
      "opaque": 2239,
      "could": 2240,
      "interrup": 2241,
      "measures": 2242,
      "substanti": 2243,
      "call": 2244,
      "isch": 2245,
      "ables": 2246,
      "peri": 2247,
      "logiciel": 2248,
      "import": 2249,
      "controlled": 2250,
      "univers": 2251,
      "costs": 2252,
      "princip": 2253,
      "lti": 2254,
      "isting": 2255,
      "conven": 2256,
      "project": 2257,
      "international": 2258,
      "take": 2259,
      "indemnity": 2260,
      "sammel": 2261,
      "fall": 2262,
      "ren": 2263,
      "compen": 2264,
      "conveying": 2265,
      "consistent": 2266,
      "immediately": 2267,
      "glich": 2268,
      "mini": 2269,
      "ée": 2270,
      "choi": 2271,
      "supplied": 2272,
      "utiliz": 2273,
      "ied": 2274,
      "ane": 2275,
      "artis": 2276,
      "sions": 2277,
      "gewä": 2278,
      "agreements": 2279,
      "disclaims": 2280,
      "remove": 2281,
      "hl": 2282,
      "ling": 2283,
      "rection": 2284,
      "dele": 2285,
      "constru": 2286,
      "down": 2287,
      "forms": 2288,
      "personal": 2289,
      "oeuvre": 2290,
      "compensation": 2291,
      "choice": 2292,
      "timm": 2293,
      "absch": 2294,
      "mpt": 2295,
      "subs": 2296,
      "expressed": 2297,
      "reproduction": 2298,
      "aneous": 2299,
      "abschnit": 2300,
      "zw": 2301,
      "alleg": 2302,
      "neither": 2303,
      "load": 2304,
      "exten": 2305,
      "sible": 2306,
      "offering": 2307,
      "strict": 2308,
      "known": 2309,
      "knowledge": 2310,
      "revo": 2311,
      "implement": 2312,
      "eines": 2313,
      "deploy": 2314,
      "gewähr": 2315,
      "mail": 2316,
      "keine": 2317,
      "einer": 2318,
      "fol": 2319,
      "sses": 2320,
      "ord": 2321,
      "infringed": 2322,
      "restriction": 2323,
      "bar": 2324,
      "cent": 2325,
      "her": 2326,
      "ile": 2327,
      "xi": 2328,
      "left": 2329,
      "losses": 2330,
      "priv": 2331,
      "reference": 2332,
      "service": 2333,
      "protection": 2334,
      "artistic": 2335,
      "eit": 2336,
      "wand": 2337,
      "err": 2338,
      "ang": 2339,
      "listed": 2340,
      "1995": 2341,
      "duration": 2342,
      "practicable": 2343,
      "bound": 2344,
      "don": 2345,
      "lities": 2346,
      "two": 2347,
      "selves": 2348,
      "themselves": 2349,
      "minimum": 2350,
      "dy": 2351,
      "dé": 2352,
      "ill": 2353,
      "sind": 2354,
      "tie": 2355,
      "sich": 2356,
      "freely": 2357,
      "everyone": 2358,
      "requested": 2359,
      "concerning": 2360,
      "university": 2361,
      "king": 2362,
      "scop": 2363,
      "sound": 2364,
      "modifying": 2365,
      "component": 2366,
      "single": 2367,
      "called": 2368,
      "scope": 2369,
      "gment": 2370,
      "hard": 2371,
      "persons": 2372,
      "stop": 2373,
      "development": 2374,
      "nutzungs": 2375,
      "image": 2376,
      "conflic": 2377,
      "interruption": 2378,
      "em": 2379,
      "fra": 2380,
      "xy": 2381,
      "cture": 2382,
      "trade": 2383,
      "reserves": 2384,
      "identified": 2385,
      "stances": 2386,
      "solely": 2387,
      "arrangement": 2388,
      "circumstances": 2389,
      "quality": 2390,
      "hardware": 2391,
      "bu": 2392,
      "fin": 2393,
      "sin": 2394,
      "disclaimed": 2395,
      "whom": 2396,
      "identifier": 2397,
      "bene": 2398,
      "relationship": 2399,
      "fen": 2400,
      "sp": 2401,
      "cell": 2402,
      "suf": 2403,
      "identify": 2404,
      "faci": 2405,
      "endorsements": 2406,
      "besch": 2407,
      "words": 2408,
      "dar": 2409,
      "ise": 2410,
      "mut": 2411,
      "istic": 2412,
      "compu": 2413,
      "copyleft": 2414,
      "oweit": 2415,
      "graph": 2416,
      "commercially": 2417,
      "plus": 2418,
      "atives": 2419,
      "accordance": 2420,
      "prohibited": 2421,
      "ning": 2422,
      "reformed": 2423,
      "adver": 2424,
      "contribute": 2425,
      "pursu": 2426,
      "lichen": 2427,
      "relevant": 2428,
      "statement": 2429,
      "draw": 2430,
      "ischen": 2431,
      "abschnitt": 2432,
      "fä": 2433,
      "uish": 2434,
      "requi": 2435,
      "exter": 2436,
      "disting": 2437,
      "requirement": 2438,
      "individually": 2439,
      "propriet": 2440,
      "lsory": 2441,
      "carry": 2442,
      "compulsory": 2443,
      "pursuant": 2444,
      "distinguish": 2445,
      "利用": 2446,
      "liter": 2447,
      "genann": 2448,
      "common": 2449,
      "miscell": 2450,
      "book": 2451,
      "court": 2452,
      "satisfy": 2453,
      "miscellaneous": 2454,
      "pass": 2455,
      "ough": 2456,
      "wie": 2457,
      "procure": 2458,
      "custo": 2459,
      "ify": 2460,
      "distributes": 2461,
      "agency": 2462,
      "technological": 2463,
      "construed": 2464,
      "ration": 2465,
      "ange": 2466,
      "revised": 2467,
      "vergü": 2468,
      "teil": 2469,
      "dedic": 2470,
      "held": 2471,
      "ficient": 2472,
      "substitute": 2473,
      "conflict": 2474,
      "requires": 2475,
      "vergüt": 2476,
      "48": 2477,
      "input": 2478,
      "att": 2479,
      "ower": 2480,
      "hereafter": 2481,
      "therefore": 2482,
      "ways": 2483,
      "fees": 2484,
      "describe": 2485,
      "sufficient": 2486,
      "proprietary": 2487,
      "procurement": 2488,
      "grou": 2489,
      "ms": 2490,
      "beg": 2491,
      "providing": 2492,
      "marks": 2493,
      "ficial": 2494,
      "dass": 2495,
      "té": 2496,
      "incur": 2497,
      "contr": 2498,
      "rules": 2499,
      "assert": 2500,
      "os": 2501,
      "tte": 2502,
      "prev": 2503,
      "acknowled": 2504,
      "infringes": 2505,
      "community": 2506,
      "ety": 2507,
      "uistic": 2508,
      "invalid": 2509,
      "attor": 2510,
      "iten": 2511,
      "cla": 2512,
      "trag": 2513,
      "ready": 2514,
      "substantial": 2515,
      "linguistic": 2516,
      "60": 2517,
      "ging": 2518,
      "ensure": 2519,
      "parts": 2520,
      "accep": 2521,
      "irrevo": 2522,
      "statute": 2523,
      "2000": 2524,
      "components": 2525,
      "alleging": 2526,
      "attorne": 2527,
      "irrevoc": 2528,
      "want": 2529,
      "atte": 2530,
      "arbit": 2531,
      "fif": 2532,
      "bear": 2533,
      "pream": 2534,
      "instru": 2535,
      "printed": 2536,
      "treat": 2537,
      "suitable": 2538,
      "extensions": 2539,
      "preamble": 2540,
      "wish": 2541,
      "musical": 2542,
      "multi": 2543,
      "ket": 2544,
      "nature": 2545,
      "incurred": 2546,
      "ide": 2547,
      "je": 2548,
      "val": 2549,
      "許諾": 2550,
      "already": 2551,
      "licentie": 2552,
      "ects": 2553,
      "prefer": 2554,
      "weise": 2555,
      "represents": 2556,
      "systems": 2557,
      "installation": 2558,
      "aut": 2559,
      "mar": 2560,
      "wen": 2561,
      "verbre": 2562,
      "type": 2563,
      "creation": 2564,
      "present": 2565,
      "altered": 2566,
      "restricted": 2567,
      "physical": 2568,
      "mal": 2569,
      "soweit": 2570,
      "were": 2571,
      "üc": 2572,
      "propag": 2573,
      "gel": 2574,
      "governing": 2575,
      "else": 2576,
      "uniform": 2577,
      "adapted": 2578,
      "please": 2579,
      "address": 2580,
      "ordin": 2581,
      "distinguishing": 2582,
      "line": 2583,
      "mon": 2584,
      "rees": 2585,
      "issu": 2586,
      "marily": 2587,
      "acti": 2588,
      "changed": 2589,
      "nutzung": 2590,
      "22": 2591,
      "tri": 2592,
      "atory": 2593,
      "asse": 2594,
      "side": 2595,
      "close": 2596,
      "agrees": 2597,
      "nets": 2598,
      "noninfringement": 2599,
      "essential": 2600,
      "obligation": 2601,
      "indemnify": 2602,
      "attach": 2603,
      "attempt": 2604,
      "netscap": 2605,
      "30": 2606,
      "fact": 2607,
      "する": 2608,
      "eren": 2609,
      "inability": 2610,
      "stor": 2611,
      "before": 2612,
      "going": 2613,
      "server": 2614,
      "1996": 2615,
      "validi": 2616,
      "modules": 2617,
      "netscape": 2618,
      "fran": 2619,
      "libra": 2620,
      "derivatives": 2621,
      "exception": 2622,
      "sinne": 2623,
      "preferred": 2624,
      "validity": 2625,
      "libraries": 2626,
      "iled": 2627,
      "mb": 2628,
      "著作": 2629,
      "replace": 2630,
      "exchange": 2631,
      "vie": 2632,
      "hereof": 2633,
      "say": 2634,
      "specifically": 2635,
      "ccpl": 2636,
      "convention": 2637,
      "sammelwerk": 2638,
      "folgen": 2639,
      "literary": 2640,
      "power": 2641,
      "toge": 2642,
      "ceed": 2643,
      "verz": 2644,
      "abwand": 2645,
      "compiled": 2646,
      "licensors": 2647,
      "collections": 2648,
      "defects": 2649,
      "excluded": 2650,
      "generally": 2651,
      "executables": 2652,
      "2002": 2653,
      "indicate": 2654,
      "payment": 2655,
      "together": 2656,
      "abwandl": 2657,
      "jed": 2658,
      "stre": 2659,
      "specifies": 2660,
      "charact": 2661,
      "latex": 2662,
      "external": 2663,
      "verbreiten": 2664,
      "view": 2665,
      "plic": 2666,
      "äum": 2667,
      "che": 2668,
      "duplic": 2669,
      "provider": 2670,
      "post": 2671,
      "jury": 2672,
      "zug": 2673,
      "receives": 2674,
      "expen": 2675,
      "communicate": 2676,
      "examples": 2677,
      "fulfi": 2678,
      "acknowledgements": 2679,
      "scripts": 2680,
      "graphic": 2681,
      "aute": 2682,
      "gle": 2683,
      "tary": 2684,
      "fero": 2685,
      "affero": 2686,
      "gives": 2687,
      "assume": 2688,
      "signed": 2689,
      "wird": 2690,
      "présent": 2691,
      "dedications": 2692,
      "auteur": 2693,
      "15": 2694,
      "mone": 2695,
      "rän": 2696,
      "tin": 2697,
      "ences": 2698,
      "recording": 2699,
      "existing": 2700,
      "fied": 2701,
      "copyrights": 2702,
      "while": 2703,
      "accu": 2704,
      "according": 2705,
      "usage": 2706,
      "waives": 2707,
      "foregoing": 2708,
      "developed": 2709,
      "courts": 2710,
      "period": 2711,
      "fon": 2712,
      "hab": 2713,
      "pas": 2714,
      "viel": 2715,
      "output": 2716,
      "keit": 2717,
      "consideration": 2718,
      "tising": 2719,
      "bestimm": 2720,
      "structure": 2721,
      "explicitly": 2722,
      "errors": 2723,
      "advertising": 2724,
      "search": 2725,
      "cette": 2726,
      "mode": 2727,
      "member": 2728,
      "iring": 2729,
      "ibly": 2730,
      "enforceability": 2731,
      "mention": 2732,
      "incorporate": 2733,
      "judi": 2734,
      "multiple": 2735,
      "ordinary": 2736,
      "ia": 2737,
      "lä": 2738,
      "üb": 2739,
      "ross": 2740,
      "sition": 2741,
      "perman": 2742,
      "appro": 2743,
      "copyrighted": 2744,
      "noncommercial": 2745,
      "plain": 2746,
      "steps": 2747,
      "orecord": 2748,
      "conveyed": 2749,
      "phonorecord": 2750,
      "private": 2751,
      "contrat": 2752,
      "irrevocable": 2753,
      "monetary": 2754,
      "permanent": 2755,
      "50": 2756,
      "ak": 2757,
      "gr": 2758,
      "oral": 2759,
      "stance": 2760,
      "vities": 2761,
      "acces": 2762,
      "publicity": 2763,
      "body": 2764,
      "regardless": 2765,
      "protected": 2766,
      "activities": 2767,
      "bro": 2768,
      "many": 2769,
      "pare": 2770,
      "absol": 2771,
      "because": 2772,
      "show": 2773,
      "prepare": 2774,
      "legibly": 2775,
      "imm": 2776,
      "1999": 2777,
      "void": 2778,
      "maintainer": 2779,
      "acquired": 2780,
      "download": 2781,
      "xyz": 2782,
      "clause": 2783,
      "stream": 2784,
      "absolute": 2785,
      "mü": 2786,
      "ring": 2787,
      "ually": 2788,
      "though": 2789,
      "lier": 2790,
      "vertrag": 2791,
      "maxi": 2792,
      "appen": 2793,
      "additions": 2794,
      "hold": 2795,
      "interpreted": 2796,
      "gleich": 2797,
      "fonts": 2798,
      "maximum": 2799,
      "actions": 2800,
      "dans": 2801,
      "hum": 2802,
      "three": 2803,
      "reinst": 2804,
      "devi": 2805,
      "fic": 2806,
      "domain": 2807,
      "schlie": 2808,
      "weit": 2809,
      "syn": 2810,
      "remains": 2811,
      "lines": 2812,
      "english": 2813,
      "vergütung": 2814,
      "group": 2815,
      "saying": 2816,
      "schließ": 2817,
      "cn": 2818,
      "dür": 2819,
      "kann": 2820,
      "py": 2821,
      "thon": 2822,
      "aran": 2823,
      "determin": 2824,
      "waived": 2825,
      "adaptations": 2826,
      "website": 2827,
      "exceptions": 2828,
      "droits": 2829,
      "month": 2830,
      "broad": 2831,
      "human": 2832,
      "dürfen": 2833,
      "python": 2834,
      "nur": 2835,
      "erl": 2836,
      "injury": 2837,
      "delete": 2838,
      "anything": 2839,
      "prove": 2840,
      "fix": 2841,
      "daten": 2842,
      "intent": 2843,
      "treaty": 2844,
      "ng": 2845,
      "tou": 2846,
      "lij": 2847,
      "counter": 2848,
      "about": 2849,
      "bei": 2850,
      "active": 2851,
      "porting": 2852,
      "______": 2853,
      "changing": 2854,
      "altern": 2855,
      "operation": 2856,
      "arbitration": 2857,
      "accessible": 2858,
      "ohl": 2859,
      "ühr": 2860,
      "の利用": 2861,
      "copied": 2862,
      "compar": 2863,
      "produced": 2864,
      "ache": 2865,
      "creativecommons": 2866,
      "generated": 2867,
      "racy": 2868,
      "genannten": 2869,
      "227": 2870,
      "accuracy": 2871,
      "gig": 2872,
      "sti": 2873,
      "zum": 2874,
      "ond": 2875,
      "inhab": 2876,
      "recomm": 2877,
      "itung": 2878,
      "proble": 2879,
      "advant": 2880,
      "lesser": 2881,
      "combine": 2882,
      "2001": 2883,
      "venue": 2884,
      "marked": 2885,
      "needed": 2886,
      "running": 2887,
      "translations": 2888,
      "principal": 2889,
      "bearbe": 2890,
      "storage": 2891,
      "character": 2892,
      "14": 2893,
      "hand": 2894,
      "ogram": 2895,
      "rep": 2896,
      "revisi": 2897,
      "research": 2898,
      "rope": 2899,
      "abe": 2900,
      "simp": 2901,
      "note": 2902,
      "understanding": 2903,
      "ically": 2904,
      "specify": 2905,
      "202": 2906,
      "posses": 2907,
      "ammen": 2908,
      "respects": 2909,
      "constitute": 2910,
      "europe": 2911,
      "zusammen": 2912,
      "accepted": 2913,
      "duplicate": 2914,
      "toute": 2915,
      "recommend": 2916,
      "hi": 2917,
      "hän": 2918,
      "ker": 2919,
      "pse": 2920,
      "sgi": 2921,
      "edit": 2922,
      "ought": 2923,
      "unab": 2924,
      "imply": 2925,
      "interf": 2926,
      "transmission": 2927,
      "ously": 2928,
      "ssen": 2929,
      "various": 2930,
      "voor": 2931,
      "society": 2932,
      "value": 2933,
      "broadcast": 2934,
      "problems": 2935,
      "unabhän": 2936,
      "sg": 2937,
      "licensees": 2938,
      "prohib": 2939,
      "moz": 2940,
      "understand": 2941,
      "sold": 2942,
      "enden": 2943,
      "defective": 2944,
      "einen": 2945,
      "werden": 2946,
      "zeich": 2947,
      "draf": 2948,
      "coura": 2949,
      "module": 2950,
      "müssen": 2951,
      "unabhängig": 2952,
      "prohibits": 2953,
      "17": 2954,
      "bie": 2955,
      "land": 2956,
      "nach": 2957,
      "ui": 2958,
      "ern": 2959,
      "tool": 2960,
      "dio": 2961,
      "direction": 2962,
      "deze": 2963,
      "mati": 2964,
      "bey": 2965,
      "cise": 2966,
      "serve": 2967,
      "manage": 2968,
      "guide": 2969,
      "subsequently": 2970,
      "firm": 2971,
      "obtained": 2972,
      "deletion": 2973,
      "fifty": 2974,
      "ück": 2975,
      "synch": 2976,
      "advantage": 2977,
      "european": 2978,
      "bi": 2979,
      "bility": 2980,
      "cé": 2981,
      "far": 2982,
      "sun": 2983,
      "ator": 2984,
      "verviel": 2985,
      "maj": 2986,
      "export": 2987,
      "meth": 2988,
      "apache": 2989,
      "aux": 2990,
      "auch": 2991,
      "combining": 2992,
      "sybase": 2993,
      "html": 2994,
      "matters": 2995,
      "request": 2996,
      "countries": 2997,
      "phonogram": 2998,
      "droit": 2999,
      "absolutely": 3000,
      "beyond": 3001,
      "vervielfä": 3002,
      "dt": 3003,
      "lated": 3004,
      "png": 3005,
      "tes": 3006,
      "wa": 3007,
      "作品": 3008,
      "substance": 3009,
      "giving": 3010,
      "linked": 3011,
      "wenn": 3012,
      "months": 3013,
      "の利用許諾": 3014,
      "repair": 3015,
      "sgml": 3016,
      "management": 3017,
      "dgment": 3018,
      "fre": 3019,
      "hat": 3020,
      "kö": 3021,
      "mally": 3022,
      "puni": 3023,
      "sci": 3024,
      "この利用許諾": 3025,
      "许可": 3026,
      "offi": 3027,
      "toward": 3028,
      "geben": 3029,
      "correction": 3030,
      "precise": 3031,
      "directed": 3032,
      "zeigen": 3033,
      "endorsement": 3034,
      "normally": 3035,
      "accompan": 3036,
      "beschrän": 3037,
      "permanently": 3038,
      "appendi": 3039,
      "punitive": 3040,
      "gre": 3041,
      "jo": 3042,
      "mary": 3043,
      "zur": 3044,
      "zie": 3045,
      "onder": 3046,
      "andere": 3047,
      "abor": 3048,
      "five": 3049,
      "percent": 3050,
      "unique": 3051,
      "remainder": 3052,
      "representation": 3053,
      "änder": 3054,
      "previously": 3055,
      "years": 3056,
      "manuals": 3057,
      "dealings": 3058,
      "becoming": 3059,
      "expenses": 3060,
      "alternative": 3061,
      "mozill": 3062,
      "major": 3063,
      "ader": 3064,
      "alike": 3065,
      "dr": 3066,
      "moral": 3067,
      "tz": 3068,
      "til": 3069,
      "rit": 3070,
      "condu": 3071,
      "ters": 3072,
      "withdraw": 3073,
      "cial": 3074,
      "whate": 3075,
      "lling": 3076,
      "submit": 3077,
      "wel": 3078,
      "rechten": 3079,
      "employ": 3080,
      "obtaining": 3081,
      "goodwill": 3082,
      "arrangements": 3083,
      "facilities": 3084,
      "propagate": 3085,
      "approved": 3086,
      "whatever": 3087,
      "cross": 3088,
      "once": 3089,
      "inste": 3090,
      "notify": 3091,
      "meaning": 3092,
      "named": 3093,
      "internet": 3094,
      "interactive": 3095,
      "conspi": 3096,
      "servicing": 3097,
      "selling": 3098,
      "rechteinhab": 3099,
      "just": 3100,
      "render": 3101,
      "frame": 3102,
      "instructions": 3103,
      "malfunction": 3104,
      "assemb": 3105,
      "understandings": 3106,
      "conspicu": 3107,
      "25": 3108,
      "ame": 3109,
      "aware": 3110,
      "best": 3111,
      "har": 3112,
      "ming": 3113,
      "ym": 3114,
      "本作品": 3115,
      "anti": 3116,
      "rity": 3117,
      "bezeich": 3118,
      "termes": 3119,
      "contra": 3120,
      "outstanding": 3121,
      "tenance": 3122,
      "urhe": 3123,
      "maintenance": 3124,
      "lists": 3125,
      "consequence": 3126,
      "lizenzgebers": 3127,
      "shares": 3128,
      "requiring": 3129,
      "operate": 3130,
      "mmc": 3131,
      "maintained": 3132,
      "bug": 3133,
      "beneficial": 3134,
      "passage": 3135,
      "instead": 3136,
      "urheber": 3137,
      "212": 3138,
      "7202": 3139,
      "ath": 3140,
      "bs": 3141,
      "ef": 3142,
      "my": 3143,
      "ton": 3144,
      "ater": 3145,
      "aring": 3146,
      "permis": 3147,
      "sofern": 3148,
      "aces": 3149,
      "extract": 3150,
      "authority": 3151,
      "large": 3152,
      "ilt": 3153,
      "results": 3154,
      "ausdr": 3155,
      "longer": 3156,
      "indicating": 3157,
      "pages": 3158,
      "stoppage": 3159,
      "mutually": 3160,
      "weiter": 3161,
      "conduct": 3162,
      "ausdrück": 3163,
      "cli": 3164,
      "hy": 3165,
      "nis": 3166,
      "og": 3167,
      "pour": 3168,
      "又は": 3169,
      "iner": 3170,
      "concé": 3171,
      "dispose": 3172,
      "schri": 3173,
      "brought": 3174,
      "merge": 3175,
      "status": 3176,
      "statements": 3177,
      "regards": 3178,
      "mozilla": 3179,
      "client": 3180,
      "こと": 3181,
      "anal": 3182,
      "sever": 3183,
      "always": 3184,
      "sug": 3185,
      "tered": 3186,
      "disp": 3187,
      "meet": 3188,
      "useful": 3189,
      "copyrightable": 3190,
      "outside": 3191,
      "ural": 3192,
      "interest": 3193,
      "acting": 3194,
      "2007": 3195,
      "controls": 3196,
      "elements": 3197,
      "complying": 3198,
      "ished": 3199,
      "functions": 3200,
      "likewise": 3201,
      "abwandlung": 3202,
      "fulfilled": 3203,
      "gleichen": 3204,
      "eigen": 3205,
      "ances": 3206,
      "redistributed": 3207,
      "death": 3208,
      "pertain": 3209,
      "duce": 3210,
      "audio": 3211,
      "loc": 3212,
      "schaf": 3213,
      "actual": 3214,
      "things": 3215,
      "entirety": 3216,
      "markup": 3217,
      "supplement": 3218,
      "operating": 3219,
      "stellen": 3220,
      "accompanying": 3221,
      "schemes": 3222,
      "zwischen": 3223,
      "attorneys": 3224,
      "guidelines": 3225,
      "schaft": 3226,
      "sk": 3227,
      "udon": 3228,
      "enable": 3229,
      "ines": 3230,
      "too": 3231,
      "ander": 3232,
      "forming": 3233,
      "ages": 3234,
      "lost": 3235,
      "usa": 3236,
      "produce": 3237,
      "titut": 3238,
      "contracts": 3239,
      "represented": 3240,
      "furn": 3241,
      "utili": 3242,
      "________________________________": 3243,
      "script": 3244,
      "utilizing": 3245,
      "prevail": 3246,
      "著作物": 3247,
      "reinstated": 3248,
      "cnri": 3249,
      "bearbeitung": 3250,
      "pseudon": 3251,
      "method": 3252,
      "dispute": 3253,
      "feder": 3254,
      "ilities": 3255,
      "kes": 3256,
      "nung": 3257,
      "räum": 3258,
      "és": 3259,
      "tho": 3260,
      "enfor": 3261,
      "versto": 3262,
      "proceed": 3263,
      "gebr": 3264,
      "sharing": 3265,
      "culated": 3266,
      "resol": 3267,
      "dum": 3268,
      "adden": 3269,
      "write": 3270,
      "php": 3271,
      "element": 3272,
      "calculated": 3273,
      "widely": 3274,
      "fully": 3275,
      "indicated": 3276,
      "institute": 3277,
      "volu": 3278,
      "dealing": 3279,
      "sense": 3280,
      "acknowledgment": 3281,
      "federal": 3282,
      "verstoß": 3283,
      "gebrui": 3284,
      "addendum": 3285,
      "apart": 3286,
      "aho": 3287,
      "kt": 3288,
      "pt": 3289,
      "yaho": 3290,
      "conom": 3291,
      "distin": 3292,
      "respe": 3293,
      "availability": 3294,
      "therein": 3295,
      "combinations": 3296,
      "permits": 3297,
      "198": 3298,
      "referred": 3299,
      "immaterial": 3300,
      "continu": 3301,
      "placing": 3302,
      "aggregation": 3303,
      "details": 3304,
      "translated": 3305,
      "begin": 3306,
      "attached": 3307,
      "schließlich": 3308,
      "pseudonym": 3309,
      "yahoo": 3310,
      "dant": 3311,
      "eld": 3312,
      "econom": 3313,
      "fas": 3314,
      "fän": 3315,
      "kom": 3316,
      "tout": 3317,
      "tlement": 3318,
      "être": 3319,
      "資料": 3320,
      "remed": 3321,
      "sele": 3322,
      "stra": 3323,
      "asi": 3324,
      "sic": 3325,
      "come": 3326,
      "aire": 3327,
      "content": 3328,
      "gest": 3329,
      "gesch": 3330,
      "haft": 3331,
      "dates": 3332,
      "primarily": 3333,
      "properly": 3334,
      "ausüb": 3335,
      "describing": 3336,
      "images": 3337,
      "technology": 3338,
      "güter": 3339,
      "scheme": 3340,
      "rechteinhaber": 3341,
      "conspicuously": 3342,
      "concédant": 3343,
      "respective": 3344,
      "immaterialgüter": 3345,
      "economic": 3346,
      "16": 3347,
      "jeder": 3348,
      "vent": 3349,
      "vous": 3350,
      "tige": 3351,
      "ret": 3352,
      "reci": 3353,
      "until": 3354,
      "verein": 3355,
      "discover": 3356,
      "disput": 3357,
      "distributors": 3358,
      "consisting": 3359,
      "receip": 3360,
      "bodi": 3361,
      "zeit": 3362,
      "untary": 3363,
      "voluntary": 3364,
      "embodi": 3365,
      "mutual": 3366,
      "judicial": 3367,
      "läs": 3368,
      "schrift": 3369,
      "furnished": 3370,
      "disputes": 3371,
      "receipt": 3372,
      "ality": 3373,
      "his": 3374,
      "len": 3375,
      "tex": 3376,
      "uit": 3377,
      "ält": 3378,
      "提供": 3379,
      "coll": 3380,
      "decl": 3381,
      "unaltered": 3382,
      "wieder": 3383,
      "neces": 3384,
      "creates": 3385,
      "peer": 3386,
      "sarily": 3387,
      "supporting": 3388,
      "2003": 3389,
      "exclusively": 3390,
      "100": 3391,
      "designate": 3392,
      "appears": 3393,
      "taken": 3394,
      "counterclaim": 3395,
      "ausdrücklich": 3396,
      "ausübung": 3397,
      "lässi": 3398,
      "necessarily": 3399,
      "hon": 3400,
      "nations": 3401,
      "oc": 3402,
      "pf": 3403,
      "œu": 3404,
      "encoura": 3405,
      "rest": 3406,
      "lib": 3407,
      "coun": 3408,
      "licenci": 3409,
      "mathe": 3410,
      "ques": 3411,
      "last": 3412,
      "subsection": 3413,
      "davon": 3414,
      "implic": 3415,
      "oben": 3416,
      "saction": 3417,
      "lizenzbedingungen": 3418,
      "noncommercially": 3419,
      "transaction": 3420,
      "regis": 3421,
      "ount": 3422,
      "ssl": 3423,
      "amount": 3424,
      "accepting": 3425,
      "entirely": 3426,
      "draft": 3427,
      "quali": 3428,
      "contacted": 3429,
      "become": 3430,
      "gewährten": 3431,
      "spons": 3432,
      "interfaces": 3433,
      "vereinbar": 3434,
      "cry": 3435,
      "mic": 3436,
      "nimm": 3437,
      "old": 3438,
      "rence": 3439,
      "sä": 3440,
      "spi": 3441,
      "ün": 3442,
      "inser": 3443,
      "secu": 3444,
      "sehen": 3445,
      "deci": 3446,
      "six": 3447,
      "lying": 3448,
      "mitte": 3449,
      "schen": 3450,
      "lawsuit": 3451,
      "visible": 3452,
      "1998": 3453,
      "setz": 3454,
      "identical": 3455,
      "werke": 3456,
      "cases": 3457,
      "ihn": 3458,
      "effectively": 3459,
      "webcast": 3460,
      "practi": 3461,
      "concerns": 3462,
      "addressed": 3463,
      "downstream": 3464,
      "implemented": 3465,
      "attorney": 3466,
      "market": 3467,
      "comparable": 3468,
      "still": 3469,
      "effor": 3470,
      "distinct": 3471,
      "sponsor": 3472,
      "nimmt": 3473,
      "01": 3474,
      "bid": 3475,
      "hält": 3476,
      "jac": 3477,
      "mere": 3478,
      "oh": 3479,
      "sou": 3480,
      "贡献": 3481,
      "invol": 3482,
      "edi": 3483,
      "forbid": 3484,
      "dern": 3485,
      "sui": 3486,
      "bezug": 3487,
      "distribu": 3488,
      "quanti": 3489,
      "adjac": 3490,
      "sowie": 3491,
      "presence": 3492,
      "internal": 3493,
      "generis": 3494,
      "collectively": 3495,
      "allows": 3496,
      "assen": 3497,
      "vention": 3498,
      "affected": 3499,
      "rechtlichen": 3500,
      "sammelwerke": 3501,
      "gelten": 3502,
      "devices": 3503,
      "determining": 3504,
      "dtd": 3505,
      "office": 3506,
      "accompanied": 3507,
      "spirit": 3508,
      "insert": 3509,
      "adjacent": 3510,
      "cit": 3511,
      "gilt": 3512,
      "osition": 3513,
      "xml": 3514,
      "äden": 3515,
      "reib": 3516,
      "reduce": 3517,
      "official": 3518,
      "riff": 3519,
      "ask": 3520,
      "worx": 3521,
      "she": 3522,
      "company": 3523,
      "compres": 3524,
      "composition": 3525,
      "contributes": 3526,
      "ichtet": 3527,
      "programming": 3528,
      "schäden": 3529,
      "says": 3530,
      "performances": 3531,
      "tical": 3532,
      "defend": 3533,
      "thereto": 3534,
      "generic": 3535,
      "developers": 3536,
      "respondent": 3537,
      "reproduced": 3538,
      "charged": 3539,
      "intention": 3540,
      "sharealike": 3541,
      "consented": 3542,
      "stellung": 3543,
      "items": 3544,
      "interpret": 3545,
      "logos": 3546,
      "utilize": 3547,
      "customarily": 3548,
      "begriff": 3549,
      "postscript": 3550,
      "mentioned": 3551,
      "appendix": 3552,
      "ondere": 3553,
      "frameworx": 3554,
      "permissive": 3555,
      "hyper": 3556,
      "volume": 3557,
      "licencié": 3558,
      "ohne": 3559,
      "quantity": 3560,
      "dri": 3561,
      "dated": 3562,
      "june": 3563,
      "mess": 3564,
      "nu": 3565,
      "zi": 3566,
      "その": 3567,
      "wil": 3568,
      "suc": 3569,
      "geb": 3570,
      "sublicenses": 3571,
      "informed": 3572,
      "ible": 3573,
      "openssl": 3574,
      "exercised": 3575,
      "2004": 3576,
      "election": 3577,
      "credits": 3578,
      "sentence": 3579,
      "natural": 3580,
      "psl": 3581,
      "country": 3582,
      "wirk": 3583,
      "principles": 3584,
      "assembled": 3585,
      "implication": 3586,
      "registered": 3587,
      "sous": 3588,
      "resi": 3589,
      "leist": 3590,
      "cted": 3591,
      "field": 3592,
      "comes": 3593,
      "ources": 3594,
      "mulan": 3595,
      "graphy": 3596,
      "ick": 3597,
      "impos": 3598,
      "bring": 3599,
      "updates": 3600,
      "phra": 3601,
      "directory": 3602,
      "personne": 3603,
      "101": 3604,
      "matics": 3605,
      "numbered": 3606,
      "takes": 3607,
      "besondere": 3608,
      "overall": 3609,
      "insbesondere": 3610,
      "technically": 3611,
      "stellt": 3612,
      "paragraphs": 3613,
      "gewährleist": 3614,
      "mailing": 3615,
      "finally": 3616,
      "identifying": 3617,
      "possession": 3618,
      "scienti": 3619,
      "precisely": 3620,
      "proceedings": 3621,
      "fänger": 3622,
      "mathematics": 3623,
      "qualify": 3624,
      "02": 3625,
      "ado": 3626,
      "brac": 3627,
      "eut": 3628,
      "pd": 3629,
      "rs": 3630,
      "wur": 3631,
      "wend": 3632,
      "ées": 3633,
      "ende": 3634,
      "arc": 3635,
      "enter": 3636,
      "diff": 3637,
      "confi": 3638,
      "stu": 3639,
      "deren": 3640,
      "typ": 3641,
      "parte": 3642,
      "gende": 3643,
      "contributed": 3644,
      "originally": 3645,
      "namen": 3646,
      "textual": 3647,
      "infringing": 3648,
      "reproducing": 3649,
      "among": 3650,
      "unicode": 3651,
      "guaran": 3652,
      "halten": 3653,
      "indemni": 3654,
      "suitability": 3655,
      "likely": 3656,
      "natür": 3657,
      "hinaus": 3658,
      "deployment": 3659,
      "closed": 3660,
      "fixes": 3661,
      "ührt": 3662,
      "kör": 3663,
      "utilisation": 3664,
      "partei": 3665,
      "guarante": 3666,
      "ave": 3667,
      "hmen": 3668,
      "ire": 3669,
      "test": 3670,
      "erfolgen": 3671,
      "riv": 3672,
      "lei": 3673,
      "contributing": 3674,
      "mpl": 3675,
      "applications": 3676,
      "lizenzen": 3677,
      "textbook": 3678,
      "steward": 3679,
      "combines": 3680,
      "databases": 3681,
      "formatters": 3682,
      "juristi": 3683,
      "numbering": 3684,
      "hereinafter": 3685,
      "beste": 3686,
      "institut": 3687,
      "judgment": 3688,
      "linking": 3689,
      "processors": 3690,
      "hinweise": 3691,
      "issue": 3692,
      "honor": 3693,
      "occur": 3694,
      "œuvre": 3695,
      "impossible": 3696,
      "pdf": 3697,
      "away": 3698,
      "ban": 3699,
      "cis": 3700,
      "equi": 3701,
      "gabe": 3702,
      "none": 3703,
      "pment": 3704,
      "rout": 3705,
      "tm": 3706,
      "tlich": 3707,
      "v2": 3708,
      "oris": 3709,
      "ench": 3710,
      "info": 3711,
      "lité": 3712,
      "cease": 3713,
      "stän": 3714,
      "fili": 3715,
      "cill": 3716,
      "doc": 3717,
      "accur": 3718,
      "applied": 3719,
      "documenting": 3720,
      "extend": 3721,
      "freetype": 3722,
      "preced": 3723,
      "french": 3724,
      "price": 3725,
      "polic": 3726,
      "transformed": 3727,
      "affir": 3728,
      "affili": 3729,
      "integ": 3730,
      "latent": 3731,
      "restricts": 3732,
      "vorher": 3733,
      "profit": 3734,
      "removed": 3735,
      "loading": 3736,
      "dériv": 3737,
      "prevent": 3738,
      "grund": 3739,
      "vertrags": 3740,
      "beschränk": 3741,
      "hyperlink": 3742,
      "equipment": 3743,
      "51": 3744,
      "eing": 3745,
      "find": 3746,
      "kün": 3747,
      "vable": 3748,
      "anzu": 3749,
      "timed": 3750,
      "relicensing": 3751,
      "review": 3752,
      "sein": 3753,
      "tot": 3754,
      "arti": 3755,
      "dia": 3756,
      "dite": 3757,
      "consu": 3758,
      "wipo": 3759,
      "proxy": 3760,
      "aben": 3761,
      "filling": 3762,
      "belie": 3763,
      "mod": 3764,
      "moving": 3765,
      "comple": 3766,
      "bind": 3767,
      "defen": 3768,
      "position": 3769,
      "updated": 3770,
      "infringements": 3771,
      "fails": 3772,
      "sentences": 3773,
      "übernimmt": 3774,
      "rename": 3775,
      "implementation": 3776,
      "embed": 3777,
      "すること": 3778,
      "model": 3779,
      "phonorecords": 3780,
      "bietet": 3781,
      "submitted": 3782,
      "pertaining": 3783,
      "discoverable": 3784,
      "embodied": 3785,
      "lässig": 3786,
      "vereinbarung": 3787,
      "config": 3788,
      "consumer": 3789,
      "amer": 3790,
      "bzw": 3791,
      "gt": 3792,
      "march": 3793,
      "son": 3794,
      "enh": 3795,
      "enthese": 3796,
      "reput": 3797,
      "redistributing": 3798,
      "libre": 3799,
      "although": 3800,
      "noch": 3801,
      "proto": 3802,
      "prompt": 3803,
      "doit": 3804,
      "parenthese": 3805,
      "api": 3806,
      "adding": 3807,
      "look": 3808,
      "subrout": 3809,
      "limiting": 3810,
      "peop": 3811,
      "thereafter": 3812,
      "possibly": 3813,
      "personen": 3814,
      "2008": 3815,
      "bleib": 3816,
      "complies": 3817,
      "waivable": 3818,
      "fahr": 3819,
      "lange": 3820,
      "niet": 3821,
      "retained": 3822,
      "logy": 3823,
      "announ": 3824,
      "violated": 3825,
      "archiv": 3826,
      "transferring": 3827,
      "ltigen": 3828,
      "falls": 3829,
      "verzicht": 3830,
      "revisions": 3831,
      "drafter": 3832,
      "许可证": 3833,
      "employe": 3834,
      "harm": 3835,
      "scientific": 3836,
      "americ": 3837,
      "promptly": 3838,
      "parentheses": 3839,
      "people": 3840,
      "ari": 3841,
      "bare": 3842,
      "cri": 3843,
      "garan": 3844,
      "sons": 3845,
      "sans": 3846,
      "tru": 3847,
      "zo": 3848,
      "öschen": 3849,
      "ert": 3850,
      "inconsistent": 3851,
      "times": 3852,
      "tibility": 3853,
      "repos": 3854,
      "secre": 3855,
      "rich": 3856,
      "licences": 3857,
      "ands": 3858,
      "role": 3859,
      "chreib": 3860,
      "devised": 3861,
      "itory": 3862,
      "unity": 3863,
      "ston": 3864,
      "ablish": 3865,
      "gesehen": 3866,
      "short": 3867,
      "inclusion": 3868,
      "solange": 3869,
      "creating": 3870,
      "warrants": 3871,
      "performing": 3872,
      "weis": 3873,
      "chantibility": 3874,
      "partner": 3875,
      "initiate": 3876,
      "merchantibility": 3877,
      "stehen": 3878,
      "earlier": 3879,
      "feat": 3880,
      "establish": 3881,
      "ausschließlich": 3882,
      "might": 3883,
      "header": 3884,
      "vorbehal": 3885,
      "constituting": 3886,
      "kenn": 3887,
      "circumvention": 3888,
      "protecting": 3889,
      "zuschreib": 3890,
      "utilization": 3891,
      "erlöschen": 3892,
      "lijke": 3893,
      "vervielfältigen": 3894,
      "immaterialgüterrechtlichen": 3895,
      "cryp": 3896,
      "decide": 3897,
      "gewährleistung": 3898,
      "accurate": 3899,
      "protoco": 3900,
      "repository": 3901,
      "zuschreibung": 3902,
      "lu": 3903,
      "lassen": 3904,
      "next": 3905,
      "odi": 3906,
      "pite": 3907,
      "éri": 3908,
      "使用": 3909,
      "eräum": 3910,
      "incompatible": 3911,
      "antho": 3912,
      "ches": 3913,
      "nok": 3914,
      "fication": 3915,
      "bec": 3916,
      "clop": 3917,
      "parat": 3918,
      "acqu": 3919,
      "tell": 3920,
      "mitteil": 3921,
      "___": 3922,
      "despite": 3923,
      "warrant": 3924,
      "ports": 3925,
      "titled": 3926,
      "lizenzvertrag": 3927,
      "weil": 3928,
      "einräum": 3929,
      "voll": 3930,
      "networks": 3931,
      "communicated": 3932,
      "vorlie": 3933,
      "places": 3934,
      "imposed": 3935,
      "risks": 3936,
      "encyclop": 3937,
      "engine": 3938,
      "sounds": 3939,
      "facility": 3940,
      "customary": 3941,
      "autoris": 3942,
      "présente": 3943,
      "erlau": 3944,
      "revision": 3945,
      "skill": 3946,
      "gebruiker": 3947,
      "practice": 3948,
      "interpretation": 3949,
      "körper": 3950,
      "ständi": 3951,
      "preceding": 3952,
      "eingeräum": 3953,
      "harmless": 3954,
      "einräumung": 3955,
      "aan": 3956,
      "cré": 3957,
      "ler": 3958,
      "pa": 3959,
      "ul": 3960,
      "uch": 3961,
      "ない": 3962,
      "thal": 3963,
      "ensur": 3964,
      "enced": 3965,
      "edu": 3966,
      "tographic": 3967,
      "anderen": 3968,
      "vermer": 3969,
      "mag": 3970,
      "fies": 3971,
      "commit": 3972,
      "rather": 3973,
      "acy": 3974,
      "publication": 3975,
      "commands": 3976,
      "whoever": 3977,
      "acceptant": 3978,
      "1991": 3979,
      "settlement": 3980,
      "considerations": 3981,
      "merchantable": 3982,
      "standards": 3983,
      "responsibilities": 3984,
      "identification": 3985,
      "einem": 3986,
      "shared": 3987,
      "treated": 3988,
      "diesem": 3989,
      "substantially": 3990,
      "wandten": 3991,
      "abwandlungen": 3992,
      "tools": 3993,
      "synchron": 3994,
      "resolved": 3995,
      "recipro": 3996,
      "indemnified": 3997,
      "guarantee": 3998,
      "bil": 3999,
      "dan": 4000,
      "flo": 4001,
      "had": 4002,
      "lations": 4003,
      "och": 4004,
      "osi": 4005,
      "smp": 4006,
      "zip": 4007,
      "され": 4008,
      "envi": 4009,
      "ended": 4010,
      "reco": 4011,
      "liev": 4012,
      "attribut": 4013,
      "depart": 4014,
      "cecill": 4015,
      "conform": 4016,
      "unden": 4017,
      "unlimited": 4018,
      "verwandten": 4019,
      "believ": 4020,
      "gever": 4021,
      "modifies": 4022,
      "account": 4023,
      "dest": 4024,
      "usc": 4025,
      "extra": 4026,
      "day": 4027,
      "standen": 4028,
      "applicability": 4029,
      "publishing": 4030,
      "transmit": 4031,
      "197": 4032,
      "variety": 4033,
      "diesen": 4034,
      "during": 4035,
      "bedeut": 4036,
      "validly": 4037,
      "regulations": 4038,
      "interpreter": 4039,
      "becomes": 4040,
      "privacy": 4041,
      "error": 4042,
      "acknowledges": 4043,
      "marke": 4044,
      "sammelwerkes": 4045,
      "jedoch": 4046,
      "contradi": 4047,
      "021": 4048,
      "subroutines": 4049,
      "announce": 4050,
      "zope": 4051,
      "nokia": 4052,
      "ensuring": 4053,
      "environ": 4054,
      "recogn": 4055,
      "adem": 4056,
      "ier": 4057,
      "klin": 4058,
      "ltig": 4059,
      "ppl": 4060,
      "sources": 4061,
      "ufact": 4062,
      "软件": 4063,
      "tigen": 4064,
      "real": 4065,
      "replaced": 4066,
      "lit": 4067,
      "ists": 4068,
      "alt": 4069,
      "esa": 4070,
      "stain": 4071,
      "asing": 4072,
      "sustain": 4073,
      "explain": 4074,
      "fixi": 4075,
      "vim": 4076,
      "understo": 4077,
      "twel": 4078,
      "sofa": 4079,
      "quel": 4080,
      "academ": 4081,
      "soap": 4082,
      "compe": 4083,
      "compile": 4084,
      "lative": 4085,
      "sublicensing": 4086,
      "peut": 4087,
      "url": 4088,
      "prech": 4089,
      "upl": 4090,
      "manufact": 4091,
      "entsprech": 4092,
      "grantor": 4093,
      "amended": 4094,
      "boston": 4095,
      "2006": 4096,
      "union": 4097,
      "differs": 4098,
      "belong": 4099,
      "reading": 4100,
      "describes": 4101,
      "änglich": 4102,
      "separately": 4103,
      "1301": 4104,
      "detailed": 4105,
      "periodi": 4106,
      "vergütungs": 4107,
      "sufficiently": 4108,
      "fifth": 4109,
      "jeglich": 4110,
      "licentiegever": 4111,
      "franklin": 4112,
      "zugänglich": 4113,
      "datenban": 4114,
      "simple": 4115,
      "bild": 4116,
      "vervielfältig": 4117,
      "waar": 4118,
      "zieh": 4119,
      "micro": 4120,
      "natürliche": 4121,
      "thalten": 4122,
      "synchronization": 4123,
      "floor": 4124,
      "department": 4125,
      "02110": 4126,
      "fixier": 4127,
      "understood": 4128,
      "twelve": 4129,
      "aar": 4130,
      "bere": 4131,
      "elle": 4132,
      "eben": 4133,
      "nally": 4134,
      "scre": 4135,
      "sant": 4136,
      "tr": 4137,
      "ution": 4138,
      "zen": 4139,
      "ère": 4140,
      "條款": 4141,
      "recast": 4142,
      "dire": 4143,
      "proced": 4144,
      "distri": 4145,
      "permet": 4146,
      "gebra": 4147,
      "resse": 4148,
      "adresse": 4149,
      "genom": 4150,
      "ported": 4151,
      "legis": 4152,
      "binding": 4153,
      "partie": 4154,
      "informationen": 4155,
      "referring": 4156,
      "rule": 4157,
      "releasing": 4158,
      "appearance": 4159,
      "assist": 4160,
      "dramati": 4161,
      "supply": 4162,
      "indicates": 4163,
      "compatibility": 4164,
      "signi": 4165,
      "functionality": 4166,
      "processing": 4167,
      "convenient": 4168,
      "jede": 4169,
      "judice": 4170,
      "device": 4171,
      "high": 4172,
      "bieten": 4173,
      "bezeichnet": 4174,
      "______________________________________": 4175,
      "beginning": 4176,
      "encouraged": 4177,
      "libpng": 4178,
      "security": 4179,
      "edition": 4180,
      "wirksam": 4181,
      "fields": 4182,
      "juristische": 4183,
      "protocols": 4184,
      "erlaub": 4185,
      "bedeutet": 4186,
      "sustained": 4187,
      "academic": 4188,
      "screen": 4189,
      "district": 4190,
      "gebrauch": 4191,
      "18": 4192,
      "6b": 4193,
      "city": 4194,
      "easi": 4195,
      "eupl": 4196,
      "ihr": 4197,
      "kop": 4198,
      "labor": 4199,
      "lppl": 4200,
      "pain": 4201,
      "rm": 4202,
      "w3": 4203,
      "wis": 4204,
      "zif": 4205,
      "ès": 4206,
      "あな": 4207,
      "開放": 4208,
      "enthalten": 4209,
      "inhal": 4210,
      "reuse": 4211,
      "lia": 4212,
      "liber": 4213,
      "secure": 4214,
      "aten": 4215,
      "veränder": 4216,
      "verwend": 4217,
      "stüc": 4218,
      "thern": 4219,
      "doing": 4220,
      "context": 4221,
      "keiner": 4222,
      "misrepresented": 4223,
      "berührt": 4224,
      "primary": 4225,
      "interchange": 4226,
      "els": 4227,
      "certi": 4228,
      "remaining": 4229,
      "usingly": 4230,
      "expect": 4231,
      "explo": 4232,
      "northern": 4233,
      "supplier": 4234,
      "nennung": 4235,
      "ungsstüc": 4236,
      "needs": 4237,
      "assumes": 4238,
      "mechanical": 4239,
      "confusingly": 4240,
      "zustimm": 4241,
      "angaben": 4242,
      "angemess": 4243,
      "autre": 4244,
      "bestimmungen": 4245,
      "lijk": 4246,
      "possesses": 4247,
      "bsd": 4248,
      "sugarc": 4249,
      "enforcing": 4250,
      "remedies": 4251,
      "rsv": 4252,
      "defense": 4253,
      "employees": 4254,
      "america": 4255,
      "features": 4256,
      "jeglicher": 4257,
      "vervielfältigungsstüc": 4258,
      "あなた": 4259,
      "angemessen": 4260,
      "sugarcrm": 4261,
      "aliz": 4262,
      "fü": 4263,
      "haus": 4264,
      "ight": 4265,
      "jus": 4266,
      "ked": 4267,
      "pie": 4268,
      "vres": 4269,
      "wal": 4270,
      "zation": 4271,
      "ön": 4272,
      "二次": 4273,
      "的著作物": 4274,
      "tives": 4275,
      "off": 4276,
      "edited": 4277,
      "edia": 4278,
      "itable": 4279,
      "nove": 4280,
      "unberührt": 4281,
      "wire": 4282,
      "mas": 4283,
      "assi": 4284,
      "abri": 4285,
      "super": 4286,
      "filed": 4287,
      "bekann": 4288,
      "class": 4289,
      "gemach": 4290,
      "shown": 4291,
      "apparat": 4292,
      "qué": 4293,
      "nel": 4294,
      "near": 4295,
      "darily": 4296,
      "irgende": 4297,
      "uration": 4298,
      "vision": 4299,
      "series": 4300,
      "persön": 4301,
      "applying": 4302,
      "2005": 4303,
      "integr": 4304,
      "latter": 4305,
      "waive": 4306,
      "communications": 4307,
      "retains": 4308,
      "acknowledgement": 4309,
      "secondarily": 4310,
      "öffentlichkeit": 4311,
      "conditioned": 4312,
      "darüber": 4313,
      "drawing": 4314,
      "genannte": 4315,
      "customer": 4316,
      "groups": 4317,
      "propagation": 4318,
      "issued": 4319,
      "issues": 4320,
      "folgenden": 4321,
      "verzichtet": 4322,
      "editor": 4323,
      "synching": 4324,
      "fasst": 4325,
      "gebunden": 4326,
      "vorherigen": 4327,
      "configuration": 4328,
      "reputation": 4329,
      "partnership": 4330,
      "reciprocal": 4331,
      "extraction": 4332,
      "announcement": 4333,
      "genommen": 4334,
      "二次的著作物": 4335,
      "november": 4336,
      "gemacht": 4337,
      "apparatus": 4338,
      "aac": 4339,
      "clic": 4340,
      "fle": 4341,
      "hou": 4342,
      "ion": 4343,
      "ige": 4344,
      "jet": 4345,
      "lend": 4346,
      "mö": 4347,
      "män": 4348,
      "né": 4349,
      "omit": 4350,
      "pra": 4351,
      "sont": 4352,
      "tant": 4353,
      "v1": 4354,
      "weder": 4355,
      "ßen": 4356,
      "ones": 4357,
      "tious": 4358,
      "semp": 4359,
      "isten": 4360,
      "anders": 4361,
      "deut": 4362,
      "unverzicht": 4363,
      "wij": 4364,
      "assigned": 4365,
      "discre": 4366,
      "disclosed": 4367,
      "motion": 4368,
      "vir": 4369,
      "vice": 4370,
      "undertakes": 4371,
      "genie": 4372,
      "local": 4373,
      "production": 4374,
      "mato": 4375,
      "missions": 4376,
      "deny": 4377,
      "mediation": 4378,
      "news": 4379,
      "1997": 4380,
      "tortious": 4381,
      "designs": 4382,
      "alters": 4383,
      "specification": 4384,
      "vorgesehen": 4385,
      "surrender": 4386,
      "throughout": 4387,
      "authorizes": 4388,
      "equitable": 4389,
      "rechtevermer": 4390,
      "stellungen": 4391,
      "asserting": 4392,
      "allein": 4393,
      "translate": 4394,
      "accepts": 4395,
      "arbitr": 4396,
      "closely": 4397,
      "members": 4398,
      "ficant": 4399,
      "zusammenstellungen": 4400,
      "drafted": 4401,
      "joy": 4402,
      "eigener": 4403,
      "located": 4404,
      "1989": 4405,
      "continues": 4406,
      "county": 4407,
      "phrase": 4408,
      "bracket": 4409,
      "bestehen": 4410,
      "vorbehaltlich": 4411,
      "zuschreibungsemp": 4412,
      "körperlich": 4413,
      "datenbanken": 4414,
      "assistance": 4415,
      "significant": 4416,
      "justi": 4417,
      "möglich": 4418,
      "mängel": 4419,
      "genießen": 4420,
      "zuschreibungsempfänger": 4421,
      "cine": 4422,
      "lus": 4423,
      "mä": 4424,
      "pig": 4425,
      "sver": 4426,
      "send": 4427,
      "tx": 4428,
      "uary": 4429,
      "yy": 4430,
      "zim": 4431,
      "して": 4432,
      "eric": 4433,
      "inaccurate": 4434,
      "replacing": 4435,
      "liver": 4436,
      "sept": 4437,
      "offran": 4438,
      "licon": 4439,
      "forward": 4440,
      "verle": 4441,
      "start": 4442,
      "derog": 4443,
      "silicon": 4444,
      "behält": 4445,
      "vid": 4446,
      "geo": 4447,
      "gele": 4448,
      "gemä": 4449,
      "modifié": 4450,
      "admin": 4451,
      "agents": 4452,
      "music": 4453,
      "losing": 4454,
      "gratis": 4455,
      "david": 4456,
      "schlus": 4457,
      "dieses": 4458,
      "cessor": 4459,
      "packages": 4460,
      "selb": 4461,
      "torque": 4462,
      "torrent": 4463,
      "aufgrund": 4464,
      "mise": 4465,
      "allowing": 4466,
      "fullest": 4467,
      "ihm": 4468,
      "seek": 4469,
      "runs": 4470,
      "organiz": 4471,
      "picture": 4472,
      "hope": 4473,
      "bittorrent": 4474,
      "osl": 4475,
      "jeweil": 4476,
      "greater": 4477,
      "joint": 4478,
      "internetadresse": 4479,
      "rendered": 4480,
      "ateral": 4481,
      "extracted": 4482,
      "locations": 4483,
      "straight": 4484,
      "wiedergeben": 4485,
      "pflich": 4486,
      "citations": 4487,
      "zij": 4488,
      "wurde": 4489,
      "integrity": 4490,
      "embedded": 4491,
      "secrets": 4492,
      "environment": 4493,
      "kopie": 4494,
      "開放資料": 4495,
      "québec": 4496,
      "cinemato": 4497,
      "txt": 4498,
      "zimbra": 4499,
      "forwardly": 4500,
      "schluss": 4501,
      "jeweils": 4502,
      "straightforwardly": 4503,
      "blan": 4504,
      "dk": 4505,
      "dor": 4506,
      "email": 4507,
      "four": 4508,
      "falle": 4509,
      "hu": 4510,
      "jour": 4511,
      "nvi": 4512,
      "oct": 4513,
      "pbs": 4514,
      "smail": 4515,
      "vation": 4516,
      "zü": 4517,
      "orical": 4518,
      "enjoy": 4519,
      "tizen": 4520,
      "resell": 4521,
      "recitations": 4522,
      "sec": 4523,
      "atz": 4524,
      "ouve": 4525,
      "ara": 4526,
      "dient": 4527,
      "conden": 4528,
      "condor": 4529,
      "ationen": 4530,
      "veröffentlich": 4531,
      "worden": 4532,
      "exc": 4533,
      "exceed": 4534,
      "clara": 4535,
      "gesetz": 4536,
      "lles": 4537,
      "apis": 4538,
      "agent": 4539,
      "appe": 4540,
      "commence": 4541,
      "sublicensable": 4542,
      "arranged": 4543,
      "tention": 4544,
      "follows": 4545,
      "interbase": 4546,
      "initially": 4547,
      "execute": 4548,
      "selon": 4549,
      "displays": 4550,
      "instance": 4551,
      "computing": 4552,
      "drawn": 4553,
      "prominently": 4554,
      "archive": 4555,
      "compiler": 4556,
      "freedoms": 4557,
      "historical": 4558,
      "hinweis": 4559,
      "nutzungsrechte": 4560,
      "imagemag": 4561,
      "許諾者": 4562,
      "assets": 4563,
      "downloading": 4564,
      "kernel": 4565,
      "notifying": 4566,
      "prevailing": 4567,
      "enforced": 4568,
      "haftungs": 4569,
      "collabor": 4570,
      "collateral": 4571,
      "declar": 4572,
      "effort": 4573,
      "avec": 4574,
      "affiliates": 4575,
      "true": 4576,
      "cryptographic": 4577,
      "anthology": 4578,
      "contradict": 4579,
      "periodical": 4580,
      "waarden": 4581,
      "santa": 4582,
      "abridgment": 4583,
      "discretion": 4584,
      "newsgroups": 4585,
      "offrant": 4586,
      "gemäß": 4587,
      "nvidia": 4588,
      "resellers": 4589,
      "condensation": 4590,
      "imagemagick": 4591,
      "00": 4592,
      "28": 4593,
      "baar": 4594,
      "ck": 4595,
      "cp": 4596,
      "gif": 4597,
      "gung": 4598,
      "lr": 4599,
      "past": 4600,
      "rar": 4601,
      "satz": 4602,
      "tat": 4603,
      "本许可证": 4604,
      "本條款": 4605,
      "thar": 4606,
      "thack": 4607,
      "erk": 4608,
      "enables": 4609,
      "tise": 4610,
      "reader": 4611,
      "isons": 4612,
      "istet": 4613,
      "rigen": 4614,
      "ests": 4615,
      "andteil": 4616,
      "let": 4617,
      "verbind": 4618,
      "verstanden": 4619,
      "verfü": 4620,
      "proces": 4621,
      "prospe": 4622,
      "asci": 4623,
      "copie": 4624,
      "pertin": 4625,
      "parlia": 4626,
      "llen": 4627,
      "apr": 4628,
      "adjust": 4629,
      "atement": 4630,
      "nethack": 4631,
      "contest": 4632,
      "programmer": 4633,
      "correct": 4634,
      "disclaiming": 4635,
      "noncompliance": 4636,
      "excludes": 4637,
      "came": 4638,
      "cathar": 4639,
      "acts": 4640,
      "initiative": 4641,
      "merzie": 4642,
      "thirty": 4643,
      "differential": 4644,
      "1994": 4645,
      "receiving": 4646,
      "ausschluss": 4647,
      "alterations": 4648,
      "authorize": 4649,
      "remote": 4650,
      "installed": 4651,
      "assuran": 4652,
      "collecting": 4653,
      "physic": 4654,
      "solche": 4655,
      "important": 4656,
      "deployed": 4657,
      "since": 4658,
      "drawings": 4659,
      "posting": 4660,
      "passed": 4661,
      "reinstatement": 4662,
      "comparisons": 4663,
      "hion": 4664,
      "voorwaarden": 4665,
      "understands": 4666,
      "kön": 4667,
      "beschränken": 4668,
      "great": 4669,
      "bestandteil": 4670,
      "weitergabe": 4671,
      "elemente": 4672,
      "fashion": 4673,
      "kommerzie": 4674,
      "selection": 4675,
      "haftung": 4676,
      "involved": 4677,
      "compression": 4678,
      "adobe": 4679,
      "policies": 4680,
      "acquiring": 4681,
      "vollständi": 4682,
      "encyclopedia": 4683,
      "manufacture": 4684,
      "microsystems": 4685,
      "easily": 4686,
      "ziffer": 4687,
      "liberté": 4688,
      "alization": 4689,
      "superse": 4690,
      "justify": 4691,
      "derogatory": 4692,
      "organizations": 4693,
      "verfügung": 4694,
      "prospective": 4695,
      "ascii": 4696,
      "pertinent": 4697,
      "catharon": 4698,
      "physically": 4699,
      "vollständige": 4700,
      "dl": 4701,
      "eth": 4702,
      "elig": 4703,
      "fits": 4704,
      "führ": 4705,
      "rpl": 4706,
      "sf": 4707,
      "sit": 4708,
      "wro": 4709,
      "zer": 4710,
      "öpf": 4711,
      "üche": 4712,
      "ütz": 4713,
      "ティ": 4714,
      "ライ": 4715,
      "专利": 4716,
      "thin": 4717,
      "istige": 4718,
      "deliver": 4719,
      "itative": 4720,
      "mass": 4721,
      "assure": 4722,
      "simu": 4723,
      "fiction": 4724,
      "became": 4725,
      "cles": 4726,
      "mee": 4727,
      "vial": 4728,
      "geh": 4729,
      "geistige": 4730,
      "soft": 4731,
      "cured": 4732,
      "quer": 4733,
      "auc": 4734,
      "ausch": 4735,
      "igo": 4736,
      "temp": 4737,
      "muss": 4738,
      "erech": 4739,
      "commer": 4740,
      "commis": 4741,
      "antlr": 4742,
      "haf": 4743,
      "authoritative": 4744,
      "schöpf": 4745,
      "goals": 4746,
      "terminates": 4747,
      "respons": 4748,
      "legally": 4749,
      "interaction": 4750,
      "einsch": 4751,
      "consists": 4752,
      "initiation": 4753,
      "print": 4754,
      "prüche": 4755,
      "ligung": 4756,
      "unities": 4757,
      "1993": 4758,
      "gui": 4759,
      "assent": 4760,
      "preserved": 4761,
      "struct": 4762,
      "______________________": 4763,
      "asserted": 4764,
      "ansprüche": 4765,
      "ltd": 4766,
      "nutzungsbedingungen": 4767,
      "benefit": 4768,
      "trivial": 4769,
      "bestimmung": 4770,
      "übrigen": 4771,
      "handl": 4772,
      "この利用許諾の": 4773,
      "alternatively": 4774,
      "remedy": 4775,
      "mittels": 4776,
      "efforts": 4777,
      "distribuer": 4778,
      "resides": 4779,
      "realnetworks": 4780,
      "entsprechenden": 4781,
      "vergütungsansprüche": 4782,
      "ziehung": 4783,
      "dramatization": 4784,
      "exploit": 4785,
      "erklä": 4786,
      "parliament": 4787,
      "können": 4788,
      "greatest": 4789,
      "ethical": 4790,
      "eligible": 4791,
      "wrote": 4792,
      "fictionalization": 4793,
      "big": 4794,
      "etw": 4795,
      "jp": 4796,
      "jun": 4797,
      "jap": 4798,
      "mand": 4799,
      "sm": 4800,
      "tone": 4801,
      "xels": 4802,
      "erfol": 4803,
      "erhalten": 4804,
      "enough": 4805,
      "revenue": 4806,
      "litical": 4807,
      "attention": 4808,
      "dex": 4809,
      "dece": 4810,
      "decis": 4811,
      "conforming": 4812,
      "proven": 4813,
      "exist": 4814,
      "discoura": 4815,
      "moto": 4816,
      "raft": 4817,
      "paralle": 4818,
      "llc": 4819,
      "mul": 4820,
      "soit": 4821,
      "compose": 4822,
      "achie": 4823,
      "iration": 4824,
      "lawrence": 4825,
      "umf": 4826,
      "nontrivial": 4827,
      "political": 4828,
      "transform": 4829,
      "generate": 4830,
      "phi": 4831,
      "schutzrechts": 4832,
      "openpbs": 4833,
      "zustellen": 4834,
      "techni": 4835,
      "someone": 4836,
      "chosen": 4837,
      "numbers": 4838,
      "owners": 4839,
      "expiration": 4840,
      "preserves": 4841,
      "authorization": 4842,
      "nutzen": 4843,
      "equally": 4844,
      "appropriately": 4845,
      "assump": 4846,
      "exclusions": 4847,
      "pixels": 4848,
      "satisfact": 4849,
      "principally": 4850,
      "deletions": 4851,
      "revoked": 4852,
      "advertise": 4853,
      "externally": 4854,
      "angebo": 4855,
      "france": 4856,
      "graphics": 4857,
      "ränk": 4858,
      "mentioning": 4859,
      "simply": 4860,
      "editors": 4861,
      "contrast": 4862,
      "selected": 4863,
      "mittel": 4864,
      "compressed": 4865,
      "study": 4866,
      "dérivée": 4867,
      "articles": 4868,
      "enhance": 4869,
      "believes": 4870,
      "erlaubnis": 4871,
      "screenplay": 4872,
      "6b1": 4873,
      "paint": 4874,
      "pieces": 4875,
      "integrated": 4876,
      "prospectively": 4877,
      "zero": 4878,
      "schöpfung": 4879,
      "einschränk": 4880,
      "erfolgt": 4881,
      "december": 4882,
      "parallel": 4883,
      "composed": 4884,
      "achieve": 4885,
      "satisfactory": 4886,
      "ace": 4887,
      "hm": 4888,
      "mê": 4889,
      "snennung": 4890,
      "udent": 4891,
      "wart": 4892,
      "été": 4893,
      "イティ": 4894,
      "エイティ": 4895,
      "クリ": 4896,
      "コモ": 4897,
      "セン": 4898,
      "ンズ": 4899,
      "及び": 4900,
      "条項": 4901,
      "thwart": 4902,
      "erfor": 4903,
      "ergeben": 4904,
      "onto": 4905,
      "enclose": 4906,
      "inous": 4907,
      "ante": 4908,
      "tik": 4909,
      "retitle": 4910,
      "semin": 4911,
      "ison": 4912,
      "rid": 4913,
      "attributions": 4914,
      "arr": 4915,
      "chance": 4916,
      "deals": 4917,
      "decessor": 4918,
      "decompression": 4919,
      "verwer": 4920,
      "sten": 4921,
      "mac": 4922,
      "assign": 4923,
      "abel": 4924,
      "abilities": 4925,
      "experi": 4926,
      "disagreement": 4927,
      "dissemin": 4928,
      "comme": 4929,
      "codec": 4930,
      "admission": 4931,
      "never": 4932,
      "gend": 4933,
      "soto": 4934,
      "soll": 4935,
      "soph": 4936,
      "losoph": 4937,
      "creations": 4938,
      "originator": 4939,
      "ailers": 4940,
      "ics": 4941,
      "indien": 4942,
      "obstruct": 4943,
      "prejudicial": 4944,
      "prejudice": 4945,
      "predecessor": 4946,
      "uminous": 4947,
      "natives": 4948,
      "sera": 4949,
      "regents": 4950,
      "relin": 4951,
      "prudent": 4952,
      "amend": 4953,
      "packag": 4954,
      "contractual": 4955,
      "moreover": 4956,
      "zulässig": 4957,
      "displaying": 4958,
      "germany": 4959,
      "enforcement": 4960,
      "alternatives": 4961,
      "mises": 4962,
      "intro": 4963,
      "causes": 4964,
      "incorporates": 4965,
      "requests": 4966,
      "publishers": 4967,
      "archival": 4968,
      "course": 4969,
      "utility": 4970,
      "voluminous": 4971,
      "oeuvres": 4972,
      "deleted": 4973,
      "deleting": 4974,
      "aneously": 4975,
      "benefits": 4976,
      "passages": 4977,
      "irrevocably": 4978,
      "instruction": 4979,
      "prepared": 4980,
      "matique": 4981,
      "phonograms": 4982,
      "appendices": 4983,
      "änderungen": 4984,
      "welche": 4985,
      "geschä": 4986,
      "venture": 4987,
      "retailers": 4988,
      "schriftlich": 4989,
      "texinfo": 4990,
      "säm": 4991,
      "intentionally": 4992,
      "dritte": 4993,
      "diffuser": 4994,
      "namensnennung": 4995,
      "parteien": 4996,
      "künst": 4997,
      "believe": 4998,
      "complements": 4999
    },
    "merges": [
      [
        "t",
        "h"
      ],
      [
        "e",
        "r"
      ],
      [
        "o",
        "r"
      ],
      [
        "o",
        "n"
      ],
      [
        "e",
        "n"
      ],
      [
        "i",
        "n"
      ],
      [
        "a",
        "n"
      ],
      [
        "th",
        "e"
      ],
      [
        "t",
        "i"
      ],
      [
        "r",
        "e"
      ],
      [
        "l",
        "i"
      ],
      [
        "s",
        "e"
      ],
      [
        "o",
        "f"
      ],
      [
        "i",
        "s"
      ],
      [
        "e",
        "d"
      ],
      [
        "ti",
        "on"
      ],
      [
        "li",
        "c"
      ],
      [
        "a",
        "l"
      ],
      [
        "c",
        "o"
      ],
      [
        "r",
        "i"
      ],
      [
        "a",
        "t"
      ],
      [
        "o",
        "u"
      ],
      [
        "e",
        "s"
      ],
      [
        "t",
        "o"
      ],
      [
        "lic",
        "en"
      ],
      [
        "an",
        "d"
      ],
      [
        "a",
        "r"
      ],
      [
        "en",
        "t"
      ],
      [
        "in",
        "g"
      ],
      [
        "l",
        "e"
      ],
      [
        "r",
        "o"
      ],
      [
        "licen",
        "se"
      ],
      [
        "c",
        "h"
      ],
      [
        "d",
        "i"
      ],
      [
        "d",
        "e"
      ],
      [
        "c",
        "e"
      ],
      [
        "f",
        "or"
      ],
      [
        "i",
        "t"
      ],
      [
        "y",
        "ou"
      ],
      [
        "n",
        "o"
      ],
      [
        "c",
        "on"
      ],
      [
        "a",
        "tion"
      ],
      [
        "u",
        "n"
      ],
      [
        "th",
        "is"
      ],
      [
        "u",
        "t"
      ],
      [
        "an",
        "y"
      ],
      [
        "v",
        "er"
      ],
      [
        "w",
        "i"
      ],
      [
        "s",
        "t"
      ],
      [
        "m",
        "a"
      ],
      [
        "d",
        "er"
      ],
      [
        "p",
        "ro"
      ],
      [
        "a",
        "s"
      ],
      [
        "a",
        "b"
      ],
      [
        "ri",
        "b"
      ],
      [
        "s",
        "i"
      ],
      [
        "s",
        "u"
      ],
      [
        "t",
        "rib"
      ],
      [
        "w",
        "or"
      ],
      [
        "v",
        "e"
      ],
      [
        "e",
        "x"
      ],
      [
        "wor",
        "k"
      ],
      [
        "c",
        "t"
      ],
      [
        "a",
        "re"
      ],
      [
        "g",
        "h"
      ],
      [
        "t",
        "er"
      ],
      [
        "l",
        "y"
      ],
      [
        "f",
        "i"
      ],
      [
        "th",
        "er"
      ],
      [
        "b",
        "e"
      ],
      [
        "gh",
        "t"
      ],
      [
        "ri",
        "ght"
      ],
      [
        "d",
        "is"
      ],
      [
        "m",
        "ent"
      ],
      [
        "c",
        "l"
      ],
      [
        "th",
        "at"
      ],
      [
        "wi",
        "th"
      ],
      [
        "t",
        "y"
      ],
      [
        "co",
        "p"
      ],
      [
        "b",
        "y"
      ],
      [
        "co",
        "m"
      ],
      [
        "trib",
        "ut"
      ],
      [
        "r",
        "an"
      ],
      [
        "c",
        "i"
      ],
      [
        "m",
        "o"
      ],
      [
        "m",
        "e"
      ],
      [
        "no",
        "t"
      ],
      [
        "al",
        "l"
      ],
      [
        "c",
        "tion"
      ],
      [
        "p",
        "er"
      ],
      [
        "v",
        "i"
      ],
      [
        "cop",
        "y"
      ],
      [
        "si",
        "on"
      ],
      [
        "g",
        "e"
      ],
      [
        "p",
        "u"
      ],
      [
        "un",
        "der"
      ],
      [
        "t",
        "w"
      ],
      [
        "u",
        "se"
      ],
      [
        "w",
        "h"
      ],
      [
        "r",
        "a"
      ],
      [
        "mo",
        "di"
      ],
      [
        "s",
        "of"
      ],
      [
        "ter",
        "m"
      ],
      [
        "d",
        "o"
      ],
      [
        "o",
        "ther"
      ],
      [
        "p",
        "ar"
      ],
      [
        "tw",
        "are"
      ],
      [
        "sof",
        "tware"
      ],
      [
        "ab",
        "le"
      ],
      [
        "s",
        "h"
      ],
      [
        "c",
        "u"
      ],
      [
        "re",
        "s"
      ],
      [
        "cl",
        "u"
      ],
      [
        "a",
        "i"
      ],
      [
        "l",
        "l"
      ],
      [
        "a",
        "p"
      ],
      [
        "co",
        "de"
      ],
      [
        "for",
        "m"
      ],
      [
        "modi",
        "fi"
      ],
      [
        "ma",
        "y"
      ],
      [
        "su",
        "ch"
      ],
      [
        "pu",
        "b"
      ],
      [
        "o",
        "w"
      ],
      [
        "i",
        "f"
      ],
      [
        "q",
        "u"
      ],
      [
        "d",
        "u"
      ],
      [
        "ver",
        "sion"
      ],
      [
        "right",
        "s"
      ],
      [
        "in",
        "clu"
      ],
      [
        "re",
        "e"
      ],
      [
        "a",
        "c"
      ],
      [
        "ti",
        "ve"
      ],
      [
        "dis",
        "tribut"
      ],
      [
        "term",
        "s"
      ],
      [
        "tion",
        "s"
      ],
      [
        "a",
        "d"
      ],
      [
        "a",
        "g"
      ],
      [
        "ou",
        "r"
      ],
      [
        "at",
        "e"
      ],
      [
        "copy",
        "right"
      ],
      [
        "ap",
        "p"
      ],
      [
        "a",
        "u"
      ],
      [
        "i",
        "g"
      ],
      [
        "t",
        "e"
      ],
      [
        "d",
        "ed"
      ],
      [
        "m",
        "it"
      ],
      [
        "n",
        "e"
      ],
      [
        "ation",
        "s"
      ],
      [
        "licen",
        "s"
      ],
      [
        "se",
        "ction"
      ],
      [
        "d",
        "ing"
      ],
      [
        "our",
        "ce"
      ],
      [
        "no",
        "ti"
      ],
      [
        "con",
        "t"
      ],
      [
        "i",
        "v"
      ],
      [
        "m",
        "u"
      ],
      [
        "pub",
        "lic"
      ],
      [
        "g",
        "en"
      ],
      [
        "trib",
        "u"
      ],
      [
        "_",
        "_"
      ],
      [
        "ro",
        "m"
      ],
      [
        "f",
        "rom"
      ],
      [
        "en",
        "ti"
      ],
      [
        "e",
        "ct"
      ],
      [
        "s",
        "o"
      ],
      [
        "s",
        "ource"
      ],
      [
        "do",
        "cu"
      ],
      [
        "docu",
        "ment"
      ],
      [
        "com",
        "p"
      ],
      [
        "co",
        "ver"
      ],
      [
        "ou",
        "t"
      ],
      [
        "o",
        "se"
      ],
      [
        "con",
        "tribut"
      ],
      [
        "c",
        "es"
      ],
      [
        "l",
        "a"
      ],
      [
        "er",
        "e"
      ],
      [
        "t",
        "ed"
      ],
      [
        "pro",
        "vi"
      ],
      [
        "l",
        "o"
      ],
      [
        "li",
        "ty"
      ],
      [
        "licens",
        "or"
      ],
      [
        "g",
        "ran"
      ],
      [
        "com",
        "m"
      ],
      [
        "m",
        "p"
      ],
      [
        "contribut",
        "or"
      ],
      [
        "f",
        "er"
      ],
      [
        "su",
        "b"
      ],
      [
        "i",
        "lity"
      ],
      [
        "ar",
        "ran"
      ],
      [
        "modifi",
        "c"
      ],
      [
        "ar",
        "y"
      ],
      [
        "c",
        "re"
      ],
      [
        "or",
        "ig"
      ],
      [
        "orig",
        "in"
      ],
      [
        "k",
        "e"
      ],
      [
        "mu",
        "st"
      ],
      [
        "ti",
        "es"
      ],
      [
        "a",
        "tive"
      ],
      [
        "i",
        "ch"
      ],
      [
        "tribu",
        "tion"
      ],
      [
        "a",
        "in"
      ],
      [
        "me",
        "an"
      ],
      [
        "you",
        "r"
      ],
      [
        "d",
        "es"
      ],
      [
        "at",
        "ed"
      ],
      [
        "distribut",
        "e"
      ],
      [
        "origin",
        "al"
      ],
      [
        "w",
        "arran"
      ],
      [
        "g",
        "ra"
      ],
      [
        "u",
        "s"
      ],
      [
        "ex",
        "t"
      ],
      [
        "sh",
        "all"
      ],
      [
        "ai",
        "m"
      ],
      [
        "cl",
        "aim"
      ],
      [
        "p",
        "res"
      ],
      [
        "l",
        "es"
      ],
      [
        "mean",
        "s"
      ],
      [
        "con",
        "di"
      ],
      [
        "li",
        "mit"
      ],
      [
        "a",
        "se"
      ],
      [
        "noti",
        "ce"
      ],
      [
        "gra",
        "m"
      ],
      [
        "it",
        "s"
      ],
      [
        "pro",
        "du"
      ],
      [
        "inclu",
        "ding"
      ],
      [
        "provi",
        "ded"
      ],
      [
        "ab",
        "ility"
      ],
      [
        "pro",
        "gram"
      ],
      [
        "condi",
        "tions"
      ],
      [
        "with",
        "out"
      ],
      [
        "p",
        "e"
      ],
      [
        "ag",
        "ree"
      ],
      [
        "an",
        "t"
      ],
      [
        "h",
        "ere"
      ],
      [
        "cover",
        "ed"
      ],
      [
        "wh",
        "ich"
      ],
      [
        "der",
        "iv"
      ],
      [
        "on",
        "s"
      ],
      [
        "j",
        "ect"
      ],
      [
        "d",
        "a"
      ],
      [
        "p",
        "or"
      ],
      [
        "l",
        "d"
      ],
      [
        "g",
        "es"
      ],
      [
        "f",
        "ree"
      ],
      [
        "ci",
        "p"
      ],
      [
        "t",
        "s"
      ],
      [
        "a",
        "ch"
      ],
      [
        "modific",
        "ations"
      ],
      [
        "t",
        "en"
      ],
      [
        "ai",
        "l"
      ],
      [
        "i",
        "r"
      ],
      [
        "dis",
        "tribution"
      ],
      [
        "an",
        "ce"
      ],
      [
        "u",
        "r"
      ],
      [
        "l",
        "le"
      ],
      [
        "i",
        "c"
      ],
      [
        "work",
        "s"
      ],
      [
        "modifi",
        "ed"
      ],
      [
        "gran",
        "ted"
      ],
      [
        "p",
        "at"
      ],
      [
        "i",
        "mp"
      ],
      [
        "ti",
        "t"
      ],
      [
        "wi",
        "ll"
      ],
      [
        "agree",
        "ment"
      ],
      [
        "m",
        "is"
      ],
      [
        "h",
        "a"
      ],
      [
        "th",
        "or"
      ],
      [
        "pat",
        "ent"
      ],
      [
        "ce",
        "p"
      ],
      [
        "in",
        "di"
      ],
      [
        "au",
        "thor"
      ],
      [
        "al",
        "ly"
      ],
      [
        "qu",
        "i"
      ],
      [
        "license",
        "d"
      ],
      [
        "st",
        "and"
      ],
      [
        "s",
        "ch"
      ],
      [
        "c",
        "or"
      ],
      [
        "o",
        "l"
      ],
      [
        "on",
        "e"
      ],
      [
        "in",
        "i"
      ],
      [
        "d",
        "at"
      ],
      [
        "f",
        "y"
      ],
      [
        "l",
        "ar"
      ],
      [
        "er",
        "ci"
      ],
      [
        "pu",
        "r"
      ],
      [
        "la",
        "w"
      ],
      [
        "a",
        "ge"
      ],
      [
        "un",
        "g"
      ],
      [
        "o",
        "b"
      ],
      [
        "li",
        "z"
      ],
      [
        "m",
        "at"
      ],
      [
        "a",
        "v"
      ],
      [
        "i",
        "ent"
      ],
      [
        "p",
        "ose"
      ],
      [
        "__",
        "__"
      ],
      [
        "re",
        "ct"
      ],
      [
        "da",
        "ma"
      ],
      [
        "app",
        "lic"
      ],
      [
        "re",
        "cip"
      ],
      [
        "recip",
        "ient"
      ],
      [
        "g",
        "o"
      ],
      [
        "mis",
        "sion"
      ],
      [
        "e",
        "ver"
      ],
      [
        "i",
        "es"
      ],
      [
        "b",
        "er"
      ],
      [
        "wi",
        "se"
      ],
      [
        "s",
        "pe"
      ],
      [
        "s",
        "a"
      ],
      [
        "pur",
        "pose"
      ],
      [
        "ha",
        "ve"
      ],
      [
        "term",
        "in"
      ],
      [
        "f",
        "o"
      ],
      [
        "en",
        "d"
      ],
      [
        "res",
        "p"
      ],
      [
        "qui",
        "re"
      ],
      [
        "ma",
        "ke"
      ],
      [
        "ex",
        "pres"
      ],
      [
        "cep",
        "t"
      ],
      [
        "deriv",
        "ative"
      ],
      [
        "per",
        "form"
      ],
      [
        "other",
        "wise"
      ],
      [
        "spe",
        "ci"
      ],
      [
        "p",
        "re"
      ],
      [
        "en",
        "z"
      ],
      [
        "liz",
        "enz"
      ],
      [
        "f",
        "r"
      ],
      [
        "ll",
        "ow"
      ],
      [
        "o",
        "p"
      ],
      [
        "fo",
        "llow"
      ],
      [
        "li",
        "ability"
      ],
      [
        "warran",
        "ty"
      ],
      [
        "b",
        "ut"
      ],
      [
        "per",
        "mission"
      ],
      [
        "sub",
        "ject"
      ],
      [
        "dis",
        "claim"
      ],
      [
        "le",
        "g"
      ],
      [
        "h",
        "as"
      ],
      [
        "dama",
        "ges"
      ],
      [
        "u",
        "m"
      ],
      [
        "li",
        "sh"
      ],
      [
        "e",
        "c"
      ],
      [
        "p",
        "ri"
      ],
      [
        "n",
        "a"
      ],
      [
        "cop",
        "ies"
      ],
      [
        "t",
        "ext"
      ],
      [
        "b",
        "in"
      ],
      [
        "produ",
        "ct"
      ],
      [
        "par",
        "ti"
      ],
      [
        "par",
        "ty"
      ],
      [
        "di",
        "e"
      ],
      [
        "de",
        "m"
      ],
      [
        "w",
        "e"
      ],
      [
        "v",
        "is"
      ],
      [
        "ti",
        "c"
      ],
      [
        "re",
        "quire"
      ],
      [
        "co",
        "lle"
      ],
      [
        "si",
        "b"
      ],
      [
        "in",
        "ter"
      ],
      [
        "e",
        "ach"
      ],
      [
        "m",
        "ed"
      ],
      [
        "n",
        "on"
      ],
      [
        "de",
        "f"
      ],
      [
        "av",
        "ail"
      ],
      [
        "ma",
        "de"
      ],
      [
        "expres",
        "s"
      ],
      [
        "ac",
        "k"
      ],
      [
        "comm",
        "ons"
      ],
      [
        "o",
        "ve"
      ],
      [
        "ab",
        "ove"
      ],
      [
        "warran",
        "ties"
      ],
      [
        "follow",
        "ing"
      ],
      [
        "p",
        "o"
      ],
      [
        "t",
        "ing"
      ],
      [
        "cre",
        "ative"
      ],
      [
        "l",
        "ed"
      ],
      [
        "b",
        "r"
      ],
      [
        "t",
        "ran"
      ],
      [
        "pub",
        "lish"
      ],
      [
        "ces",
        "s"
      ],
      [
        "ther",
        "e"
      ],
      [
        "er",
        "i"
      ],
      [
        "li",
        "ed"
      ],
      [
        "vis",
        "i"
      ],
      [
        "s",
        "er"
      ],
      [
        "wh",
        "o"
      ],
      [
        "t",
        "ain"
      ],
      [
        "licen",
        "ce"
      ],
      [
        "avail",
        "able"
      ],
      [
        "ch",
        "an"
      ],
      [
        "limit",
        "ation"
      ],
      [
        "par",
        "t"
      ],
      [
        "f",
        "f"
      ],
      [
        "mat",
        "eri"
      ],
      [
        "v",
        "a"
      ],
      [
        "modi",
        "fy"
      ],
      [
        "materi",
        "al"
      ],
      [
        "fi",
        "le"
      ],
      [
        "ex",
        "clu"
      ],
      [
        "d",
        "en"
      ],
      [
        "tran",
        "s"
      ],
      [
        "of",
        "fer"
      ],
      [
        "inclu",
        "de"
      ],
      [
        "e",
        "in"
      ],
      [
        "i",
        "ther"
      ],
      [
        "c",
        "a"
      ],
      [
        "e",
        "v"
      ],
      [
        "ut",
        "z"
      ],
      [
        "gen",
        "er"
      ],
      [
        "use",
        "d"
      ],
      [
        "lic",
        "h"
      ],
      [
        "section",
        "s"
      ],
      [
        "u",
        "p"
      ],
      [
        "applic",
        "able"
      ],
      [
        "u",
        "al"
      ],
      [
        "con",
        "s"
      ],
      [
        "p",
        "la"
      ],
      [
        "ar",
        "d"
      ],
      [
        "public",
        "ly"
      ],
      [
        "se",
        "qu"
      ],
      [
        "ar",
        "k"
      ],
      [
        "cont",
        "ain"
      ],
      [
        "document",
        "ation"
      ],
      [
        "in",
        "fr"
      ],
      [
        "infr",
        "ing"
      ],
      [
        "i",
        "d"
      ],
      [
        "or",
        "y"
      ],
      [
        "st",
        "ri"
      ],
      [
        "h",
        "ow"
      ],
      [
        "do",
        "es"
      ],
      [
        "on",
        "ly"
      ],
      [
        "es",
        "s"
      ],
      [
        "a",
        "ct"
      ],
      [
        "t",
        "ra"
      ],
      [
        "pro",
        "visi"
      ],
      [
        "leg",
        "al"
      ],
      [
        "w",
        "ri"
      ],
      [
        "re",
        "g"
      ],
      [
        "in",
        "form"
      ],
      [
        "de",
        "ve"
      ],
      [
        "ou",
        "n"
      ],
      [
        "deve",
        "lo"
      ],
      [
        "o",
        "der"
      ],
      [
        "modific",
        "ation"
      ],
      [
        "ou",
        "s"
      ],
      [
        "noti",
        "ces"
      ],
      [
        "li",
        "br"
      ],
      [
        "comm",
        "erci"
      ],
      [
        "libr",
        "ary"
      ],
      [
        "disclaim",
        "er"
      ],
      [
        "imp",
        "lied"
      ],
      [
        "ini",
        "ti"
      ],
      [
        "e",
        "ither"
      ],
      [
        "ext",
        "ent"
      ],
      [
        "ad",
        "di"
      ],
      [
        "the",
        "se"
      ],
      [
        "parti",
        "cu"
      ],
      [
        "ow",
        "n"
      ],
      [
        "particu",
        "lar"
      ],
      [
        "re",
        "as"
      ],
      [
        "i",
        "b"
      ],
      [
        "ment",
        "s"
      ],
      [
        "p",
        "h"
      ],
      [
        "ma",
        "in"
      ],
      [
        "no",
        "w"
      ],
      [
        "m",
        "er"
      ],
      [
        "p",
        "l"
      ],
      [
        "enti",
        "ty"
      ],
      [
        "reas",
        "on"
      ],
      [
        "c",
        "an"
      ],
      [
        "a",
        "f"
      ],
      [
        "st",
        "e"
      ],
      [
        "e",
        "ther"
      ],
      [
        "is",
        "ing"
      ],
      [
        "wh",
        "ether"
      ],
      [
        "2",
        "0"
      ],
      [
        "di",
        "rect"
      ],
      [
        "re",
        "l"
      ],
      [
        "us",
        "er"
      ],
      [
        "com",
        "bin"
      ],
      [
        "per",
        "s"
      ],
      [
        "p",
        "r"
      ],
      [
        "a",
        "y"
      ],
      [
        "ex",
        "ec"
      ],
      [
        "dat",
        "a"
      ],
      [
        "oun",
        "d"
      ],
      [
        "version",
        "s"
      ],
      [
        "exec",
        "ut"
      ],
      [
        "g",
        "n"
      ],
      [
        "se",
        "d"
      ],
      [
        "license",
        "s"
      ],
      [
        "ction",
        "s"
      ],
      [
        "addi",
        "tion"
      ],
      [
        "h",
        "ol"
      ],
      [
        "re",
        "stri"
      ],
      [
        "app",
        "ly"
      ],
      [
        "resp",
        "on"
      ],
      [
        "ex",
        "cept"
      ],
      [
        "tit",
        "le"
      ],
      [
        "inform",
        "ation"
      ],
      [
        "limit",
        "ed"
      ],
      [
        "u",
        "re"
      ],
      [
        "hol",
        "der"
      ],
      [
        "ti",
        "me"
      ],
      [
        "ase",
        "d"
      ],
      [
        "commerci",
        "al"
      ],
      [
        "re",
        "produ"
      ],
      [
        "m",
        "an"
      ],
      [
        "po",
        "s"
      ],
      [
        "un",
        "d"
      ],
      [
        "per",
        "mit"
      ],
      [
        "ver",
        "n"
      ],
      [
        "e",
        "t"
      ],
      [
        "th",
        "ose"
      ],
      [
        "go",
        "vern"
      ],
      [
        "med",
        "i"
      ],
      [
        "re",
        "ce"
      ],
      [
        "initi",
        "al"
      ],
      [
        "s",
        "s"
      ],
      [
        "distribut",
        "ed"
      ],
      [
        "i",
        "i"
      ],
      [
        "speci",
        "fi"
      ],
      [
        "th",
        "ir"
      ],
      [
        "be",
        "en"
      ],
      [
        "par",
        "ties"
      ],
      [
        "sch",
        "utz"
      ],
      [
        "ma",
        "k"
      ],
      [
        "st",
        "at"
      ],
      [
        "i",
        "l"
      ],
      [
        "i",
        "p"
      ],
      [
        "op",
        "en"
      ],
      [
        "is",
        "t"
      ],
      [
        "vi",
        "du"
      ],
      [
        "indi",
        "vidu"
      ],
      [
        "gener",
        "al"
      ],
      [
        "ge",
        "gen"
      ],
      [
        "thir",
        "d"
      ],
      [
        "c",
        "tive"
      ],
      [
        "re",
        "ch"
      ],
      [
        "th",
        "an"
      ],
      [
        "the",
        "ir"
      ],
      [
        "ne",
        "w"
      ],
      [
        "it",
        "y"
      ],
      [
        "wh",
        "ere"
      ],
      [
        "license",
        "e"
      ],
      [
        "here",
        "by"
      ],
      [
        "or",
        "e"
      ],
      [
        "ent",
        "s"
      ],
      [
        "how",
        "ever"
      ],
      [
        "e",
        "ar"
      ],
      [
        "cont",
        "ro"
      ],
      [
        "ro",
        "y"
      ],
      [
        "les",
        "s"
      ],
      [
        "1",
        "9"
      ],
      [
        "infring",
        "e"
      ],
      [
        "gran",
        "t"
      ],
      [
        "require",
        "d"
      ],
      [
        "ou",
        "ld"
      ],
      [
        "roy",
        "al"
      ],
      [
        "in",
        "d"
      ],
      [
        "termin",
        "ation"
      ],
      [
        "su",
        "p"
      ],
      [
        "enti",
        "al"
      ],
      [
        "li",
        "st"
      ],
      [
        "execut",
        "able"
      ],
      [
        "e",
        "l"
      ],
      [
        "na",
        "me"
      ],
      [
        "v",
        "ed"
      ],
      [
        "dem",
        "ark"
      ],
      [
        "va",
        "ri"
      ],
      [
        "tra",
        "demark"
      ],
      [
        "on",
        "t"
      ],
      [
        "gegen",
        "stand"
      ],
      [
        "re",
        "fer"
      ],
      [
        "i",
        "m"
      ],
      [
        "a",
        "ti"
      ],
      [
        "f",
        "u"
      ],
      [
        "fi",
        "les"
      ],
      [
        "ra",
        "ct"
      ],
      [
        "si",
        "ve"
      ],
      [
        "claim",
        "s"
      ],
      [
        "a",
        "m"
      ],
      [
        "ut",
        "e"
      ],
      [
        "schutz",
        "gegenstand"
      ],
      [
        "b",
        "o"
      ],
      [
        "des",
        "c"
      ],
      [
        "ch",
        "ar"
      ],
      [
        "en",
        "ce"
      ],
      [
        "ex",
        "erci"
      ],
      [
        "w",
        "ay"
      ],
      [
        "r",
        "u"
      ],
      [
        "un",
        "gen"
      ],
      [
        "sh",
        "ip"
      ],
      [
        "cor",
        "por"
      ],
      [
        "pos",
        "sib"
      ],
      [
        "f",
        "it"
      ],
      [
        "____",
        "____"
      ],
      [
        "t",
        "ten"
      ],
      [
        "in",
        "e"
      ],
      [
        "h",
        "ib"
      ],
      [
        "tribu",
        "tions"
      ],
      [
        "f",
        "e"
      ],
      [
        "th",
        "en"
      ],
      [
        "di",
        "es"
      ],
      [
        "indi",
        "rect"
      ],
      [
        "c",
        "er"
      ],
      [
        "sa",
        "me"
      ],
      [
        "pers",
        "on"
      ],
      [
        "con",
        "sequ"
      ],
      [
        "20",
        "0"
      ],
      [
        "individu",
        "al"
      ],
      [
        "li",
        "g"
      ],
      [
        "wri",
        "tten"
      ],
      [
        "re",
        "le"
      ],
      [
        "ar",
        "ising"
      ],
      [
        "v",
        "es"
      ],
      [
        "al",
        "so"
      ],
      [
        "on",
        "g"
      ],
      [
        "colle",
        "ctive"
      ],
      [
        "j",
        "ur"
      ],
      [
        "for",
        "ce"
      ],
      [
        "pla",
        "y"
      ],
      [
        "p",
        "ack"
      ],
      [
        "cont",
        "ract"
      ],
      [
        "se",
        "l"
      ],
      [
        "su",
        "l"
      ],
      [
        "i",
        "z"
      ],
      [
        "m",
        "ore"
      ],
      [
        "z",
        "u"
      ],
      [
        "develo",
        "per"
      ],
      [
        "f",
        "fer"
      ],
      [
        "d",
        "ent"
      ],
      [
        "un",
        "i"
      ],
      [
        "exerci",
        "se"
      ],
      [
        "gn",
        "u"
      ],
      [
        "re",
        "sul"
      ],
      [
        "re",
        "pres"
      ],
      [
        "e",
        "ff"
      ],
      [
        "pro",
        "per"
      ],
      [
        "dat",
        "ab"
      ],
      [
        "di",
        "ffer"
      ],
      [
        "ac",
        "cept"
      ],
      [
        "gran",
        "ts"
      ],
      [
        "resp",
        "ect"
      ],
      [
        "permit",
        "ted"
      ],
      [
        "19",
        "9"
      ],
      [
        "li",
        "able"
      ],
      [
        "o",
        "d"
      ],
      [
        "dis",
        "play"
      ],
      [
        "cre",
        "ate"
      ],
      [
        "exclu",
        "sive"
      ],
      [
        "datab",
        "ase"
      ],
      [
        "b",
        "ased"
      ],
      [
        "es",
        "t"
      ],
      [
        "se",
        "t"
      ],
      [
        "qu",
        "e"
      ],
      [
        "id",
        "enti"
      ],
      [
        "in",
        "te"
      ],
      [
        "con",
        "ve"
      ],
      [
        "express",
        "ly"
      ],
      [
        "hib",
        "it"
      ],
      [
        "conve",
        "y"
      ],
      [
        "g",
        "i"
      ],
      [
        "g",
        "iv"
      ],
      [
        "s",
        "y"
      ],
      [
        "af",
        "ter"
      ],
      [
        "ad",
        "d"
      ],
      [
        "f",
        "ound"
      ],
      [
        "addition",
        "al"
      ],
      [
        "there",
        "of"
      ],
      [
        "se",
        "s"
      ],
      [
        "up",
        "on"
      ],
      [
        "contro",
        "l"
      ],
      [
        "dies",
        "er"
      ],
      [
        "vari",
        "ant"
      ],
      [
        "comm",
        "un"
      ],
      [
        "consequ",
        "ential"
      ],
      [
        "ob",
        "ject"
      ],
      [
        "ob",
        "lig"
      ],
      [
        "1",
        "0"
      ],
      [
        "pack",
        "age"
      ],
      [
        "ig",
        "n"
      ],
      [
        "infringe",
        "ment"
      ],
      [
        "speci",
        "al"
      ],
      [
        "def",
        "ini"
      ],
      [
        "ev",
        "ent"
      ],
      [
        "provisi",
        "on"
      ],
      [
        "v",
        "o"
      ],
      [
        "res",
        "er"
      ],
      [
        "n",
        "ess"
      ],
      [
        "t",
        "or"
      ],
      [
        "des",
        "ign"
      ],
      [
        "reprodu",
        "ce"
      ],
      [
        "con",
        "si"
      ],
      [
        "ser",
        "vi"
      ],
      [
        "at",
        "ing"
      ],
      [
        "ad",
        "ap"
      ],
      [
        "e",
        "le"
      ],
      [
        "g",
        "er"
      ],
      [
        "m",
        "es"
      ],
      [
        "or",
        "g"
      ],
      [
        "re",
        "main"
      ],
      [
        "wh",
        "en"
      ],
      [
        "it",
        "e"
      ],
      [
        "n",
        "um"
      ],
      [
        "en",
        "force"
      ],
      [
        "b",
        "le"
      ],
      [
        "inclu",
        "ded"
      ],
      [
        "fit",
        "ness"
      ],
      [
        "consi",
        "der"
      ],
      [
        "form",
        "at"
      ],
      [
        "rece",
        "iv"
      ],
      [
        "us",
        "ing"
      ],
      [
        "w",
        "er"
      ],
      [
        "ne",
        "cess"
      ],
      [
        "deriv",
        "ed"
      ],
      [
        "jur",
        "is"
      ],
      [
        "in",
        "variant"
      ],
      [
        "recipient",
        "s"
      ],
      [
        "necess",
        "ary"
      ],
      [
        "r",
        "ou"
      ],
      [
        "te",
        "ch"
      ],
      [
        "ch",
        "ant"
      ],
      [
        "ma",
        "tic"
      ],
      [
        "por",
        "tions"
      ],
      [
        "mer",
        "chant"
      ],
      [
        "be",
        "l"
      ],
      [
        "au",
        "s"
      ],
      [
        "pri",
        "or"
      ],
      [
        "ne",
        "t"
      ],
      [
        "now",
        "led"
      ],
      [
        "reason",
        "able"
      ],
      [
        "so",
        "me"
      ],
      [
        "ch",
        "o"
      ],
      [
        "di",
        "g"
      ],
      [
        "ci",
        "dent"
      ],
      [
        "k",
        "ind"
      ],
      [
        "c",
        "al"
      ],
      [
        "re",
        "ad"
      ],
      [
        "in",
        "cident"
      ],
      [
        "au",
        "f"
      ],
      [
        "comp",
        "li"
      ],
      [
        "proper",
        "ty"
      ],
      [
        "un",
        "less"
      ],
      [
        "incident",
        "al"
      ],
      [
        "o",
        "m"
      ],
      [
        "ev",
        "en"
      ],
      [
        "num",
        "ber"
      ],
      [
        "b",
        "re"
      ],
      [
        "l",
        "at"
      ],
      [
        "th",
        "ing"
      ],
      [
        "in",
        "st"
      ],
      [
        "the",
        "m"
      ],
      [
        "vi",
        "sed"
      ],
      [
        "c",
        "ase"
      ],
      [
        "desc",
        "rib"
      ],
      [
        "lle",
        "ct"
      ],
      [
        "inte",
        "llect"
      ],
      [
        "found",
        "ation"
      ],
      [
        "ti",
        "s"
      ],
      [
        "provi",
        "de"
      ],
      [
        "ic",
        "al"
      ],
      [
        "provisi",
        "ons"
      ],
      [
        "at",
        "tribution"
      ],
      [
        "lo",
        "ss"
      ],
      [
        "intellect",
        "ual"
      ],
      [
        "du",
        "r"
      ],
      [
        "al",
        "ter"
      ],
      [
        "here",
        "under"
      ],
      [
        "repres",
        "ent"
      ],
      [
        "author",
        "s"
      ],
      [
        "royal",
        "ty"
      ],
      [
        "merchant",
        "ability"
      ],
      [
        "dig",
        "it"
      ],
      [
        "char",
        "ge"
      ],
      [
        "juris",
        "di"
      ],
      [
        "m",
        "in"
      ],
      [
        "wi",
        "de"
      ],
      [
        "pro",
        "pri"
      ],
      [
        "publish",
        "ed"
      ],
      [
        "bel",
        "ow"
      ],
      [
        "stand",
        "ard"
      ],
      [
        "the",
        "y"
      ],
      [
        "g",
        "u"
      ],
      [
        "m",
        "i"
      ],
      [
        "respon",
        "sib"
      ],
      [
        "w",
        "ai"
      ],
      [
        "text",
        "s"
      ],
      [
        "contributor",
        "s"
      ],
      [
        "u",
        "e"
      ],
      [
        "si",
        "e"
      ],
      [
        "comp",
        "ut"
      ],
      [
        "de",
        "p"
      ],
      [
        "au",
        "to"
      ],
      [
        "va",
        "li"
      ],
      [
        "ü",
        "r"
      ],
      [
        "ä",
        "n"
      ],
      [
        "app",
        "ear"
      ],
      [
        "p",
        "ut"
      ],
      [
        "all",
        "ow"
      ],
      [
        "por",
        "t"
      ],
      [
        "l",
        "ation"
      ],
      [
        "comp",
        "ly"
      ],
      [
        "cons",
        "tit"
      ],
      [
        "own",
        "er"
      ],
      [
        "f",
        "t"
      ],
      [
        "as",
        "s"
      ],
      [
        "chan",
        "ge"
      ],
      [
        "specifi",
        "c"
      ],
      [
        "h",
        "t"
      ],
      [
        "enti",
        "re"
      ],
      [
        "h",
        "al"
      ],
      [
        "un",
        "ter"
      ],
      [
        "in",
        "ten"
      ],
      [
        "sub",
        "sequ"
      ],
      [
        "subsequ",
        "ent"
      ],
      [
        "m",
        "en"
      ],
      [
        "inclu",
        "des"
      ],
      [
        "perform",
        "ance"
      ],
      [
        "ag",
        "ain"
      ],
      [
        "in",
        "t"
      ],
      [
        "ever",
        "y"
      ],
      [
        "compli",
        "ance"
      ],
      [
        "auto",
        "matic"
      ],
      [
        "li",
        "es"
      ],
      [
        "1",
        "2"
      ],
      [
        "t",
        "led"
      ],
      [
        "mak",
        "ing"
      ],
      [
        "f",
        "ail"
      ],
      [
        "n",
        "er"
      ],
      [
        "se",
        "ll"
      ],
      [
        "again",
        "st"
      ],
      [
        "sh",
        "ould"
      ],
      [
        "here",
        "in"
      ],
      [
        "ca",
        "use"
      ],
      [
        "a",
        "ction"
      ],
      [
        "w",
        "w"
      ],
      [
        "ex",
        "p"
      ],
      [
        "cu",
        "r"
      ],
      [
        "b",
        "ed"
      ],
      [
        "re",
        "ed"
      ],
      [
        "commun",
        "ic"
      ],
      [
        "h",
        "e"
      ],
      [
        "in",
        "corpor"
      ],
      [
        "f",
        "a"
      ],
      [
        "z",
        "e"
      ],
      [
        "wor",
        "ld"
      ],
      [
        "end",
        "or"
      ],
      [
        "oblig",
        "ations"
      ],
      [
        "fi",
        "r"
      ],
      [
        "app",
        "le"
      ],
      [
        "restri",
        "ct"
      ],
      [
        "a",
        "mp"
      ],
      [
        "l",
        "in"
      ],
      [
        "with",
        "in"
      ],
      [
        "termin",
        "ate"
      ],
      [
        "app",
        "lies"
      ],
      [
        "so",
        "ci"
      ],
      [
        "govern",
        "ed"
      ],
      [
        "h",
        "r"
      ],
      [
        "enti",
        "tled"
      ],
      [
        "contain",
        "s"
      ],
      [
        "product",
        "s"
      ],
      [
        "re",
        "d"
      ],
      [
        "st",
        "ate"
      ],
      [
        "vi",
        "ous"
      ],
      [
        "comput",
        "er"
      ],
      [
        "pre",
        "vious"
      ],
      [
        "l",
        "an"
      ],
      [
        "r",
        "on"
      ],
      [
        "ac",
        "cess"
      ],
      [
        "def",
        "in"
      ],
      [
        "a",
        "st"
      ],
      [
        "v",
        "en"
      ],
      [
        "d",
        "ra"
      ],
      [
        "ex",
        "amp"
      ],
      [
        "copy",
        "ing"
      ],
      [
        "who",
        "le"
      ],
      [
        "automatic",
        "ally"
      ],
      [
        "receiv",
        "ed"
      ],
      [
        "p",
        "age"
      ],
      [
        "st",
        "ated"
      ],
      [
        "sel",
        "f"
      ],
      [
        "giv",
        "en"
      ],
      [
        "endor",
        "se"
      ],
      [
        "purpose",
        "s"
      ],
      [
        "v",
        "or"
      ],
      [
        "s",
        "to"
      ],
      [
        "in",
        "to"
      ],
      [
        "ti",
        "g"
      ],
      [
        "ri",
        "p"
      ],
      [
        "cre",
        "di"
      ],
      [
        "fe",
        "e"
      ],
      [
        "nowled",
        "ge"
      ],
      [
        "v",
        "on"
      ],
      [
        "su",
        "r"
      ],
      [
        "stand",
        "ing"
      ],
      [
        "defin",
        "ed"
      ],
      [
        "d",
        "ate"
      ],
      [
        "n",
        "or"
      ],
      [
        "th",
        "rou"
      ],
      [
        "reser",
        "ved"
      ],
      [
        "throu",
        "gh"
      ],
      [
        "combin",
        "ation"
      ],
      [
        "b",
        "as"
      ],
      [
        "y",
        "s"
      ],
      [
        "con",
        "tribution"
      ],
      [
        "ex",
        "hibit"
      ],
      [
        "ec",
        "tive"
      ],
      [
        "user",
        "s"
      ],
      [
        "identi",
        "fi"
      ],
      [
        "ge",
        "ber"
      ],
      [
        "pres",
        "er"
      ],
      [
        "sy",
        "ste"
      ],
      [
        "e",
        "en"
      ],
      [
        "i",
        "e"
      ],
      [
        "ra",
        "c"
      ],
      [
        "lizenz",
        "geber"
      ],
      [
        "co",
        "st"
      ],
      [
        "con",
        "ne"
      ],
      [
        "licens",
        "ing"
      ],
      [
        "mat",
        "ter"
      ],
      [
        "adap",
        "t"
      ],
      [
        "m",
        "ark"
      ],
      [
        "inten",
        "ded"
      ],
      [
        "se",
        "par"
      ],
      [
        "dis",
        "tributions"
      ],
      [
        "for",
        "e"
      ],
      [
        "pro",
        "te"
      ],
      [
        "consider",
        "ed"
      ],
      [
        "in",
        "c"
      ],
      [
        "le",
        "te"
      ],
      [
        "medi",
        "um"
      ],
      [
        "t",
        "a"
      ],
      [
        "le",
        "ar"
      ],
      [
        "it",
        "self"
      ],
      [
        "bas",
        "is"
      ],
      [
        "possib",
        "ility"
      ],
      [
        "b",
        "es"
      ],
      [
        "is",
        "h"
      ],
      [
        "ab",
        "ly"
      ],
      [
        "fu",
        "ll"
      ],
      [
        "c",
        "ed"
      ],
      [
        "patent",
        "s"
      ],
      [
        "rel",
        "ated"
      ],
      [
        "sub",
        "license"
      ],
      [
        "pla",
        "ce"
      ],
      [
        "c",
        "lear"
      ],
      [
        "le",
        "ast"
      ],
      [
        "cor",
        "d"
      ],
      [
        "1",
        "1"
      ],
      [
        "f",
        "ur"
      ],
      [
        "conne",
        "ction"
      ],
      [
        "wh",
        "at"
      ],
      [
        "na",
        "mes"
      ],
      [
        "ein",
        "e"
      ],
      [
        "direct",
        "ly"
      ],
      [
        "mak",
        "es"
      ],
      [
        "cor",
        "respon"
      ],
      [
        "develo",
        "p"
      ],
      [
        "e",
        "mp"
      ],
      [
        "n",
        "i"
      ],
      [
        "in",
        "dem"
      ],
      [
        "ob",
        "tain"
      ],
      [
        "correspon",
        "ding"
      ],
      [
        "cer",
        "n"
      ],
      [
        "applic",
        "ation"
      ],
      [
        "sh",
        "are"
      ],
      [
        "man",
        "ner"
      ],
      [
        "cont",
        "ents"
      ],
      [
        "b",
        "en"
      ],
      [
        "or",
        "s"
      ],
      [
        "constit",
        "ut"
      ],
      [
        "g",
        "li"
      ],
      [
        "separ",
        "ate"
      ],
      [
        "ver",
        "b"
      ],
      [
        "differ",
        "ent"
      ],
      [
        "syste",
        "m"
      ],
      [
        "re",
        "qu"
      ],
      [
        "be",
        "ing"
      ],
      [
        "bin",
        "ary"
      ],
      [
        "program",
        "s"
      ],
      [
        "credi",
        "t"
      ],
      [
        "c",
        "ation"
      ],
      [
        "the",
        "ory"
      ],
      [
        "cre",
        "ated"
      ],
      [
        "sup",
        "p"
      ],
      [
        "al",
        "e"
      ],
      [
        "pro",
        "min"
      ],
      [
        "author",
        "iz"
      ],
      [
        "promin",
        "ent"
      ],
      [
        "re",
        "tain"
      ],
      [
        "ich",
        "t"
      ],
      [
        "go",
        "od"
      ],
      [
        "enforce",
        "able"
      ],
      [
        "n",
        "utz"
      ],
      [
        "colle",
        "ction"
      ],
      [
        "publish",
        "er"
      ],
      [
        "ele",
        "ct"
      ],
      [
        "lar",
        "ger"
      ],
      [
        "ap",
        "propri"
      ],
      [
        "gen",
        "ce"
      ],
      [
        "ma",
        "ch"
      ],
      [
        "vali",
        "d"
      ],
      [
        "st",
        "an"
      ],
      [
        "ne",
        "gli"
      ],
      [
        "negli",
        "gence"
      ],
      [
        "e",
        "u"
      ],
      [
        "as",
        "soci"
      ],
      [
        "t",
        "p"
      ],
      [
        "distribut",
        "ing"
      ],
      [
        "law",
        "s"
      ],
      [
        "ad",
        "vised"
      ],
      [
        "servi",
        "ces"
      ],
      [
        "bre",
        "ach"
      ],
      [
        "be",
        "hal"
      ],
      [
        "e",
        "qu"
      ],
      [
        "fu",
        "l"
      ],
      [
        "ati",
        "m"
      ],
      [
        "ht",
        "tp"
      ],
      [
        "verb",
        "atim"
      ],
      [
        "f",
        "ür"
      ],
      [
        "w",
        "ould"
      ],
      [
        "for",
        "th"
      ],
      [
        "pr",
        "in"
      ],
      [
        "document",
        "s"
      ],
      [
        "wri",
        "ting"
      ],
      [
        "resul",
        "ting"
      ],
      [
        "eff",
        "ect"
      ],
      [
        "net",
        "work"
      ],
      [
        "ex",
        "er"
      ],
      [
        "wer",
        "k"
      ],
      [
        "bed",
        "ing"
      ],
      [
        "appropri",
        "ate"
      ],
      [
        "n",
        "en"
      ],
      [
        "no",
        "thing"
      ],
      [
        "si",
        "mi"
      ],
      [
        "lo",
        "g"
      ],
      [
        "tor",
        "t"
      ],
      [
        "simi",
        "lar"
      ],
      [
        "o",
        "ver"
      ],
      [
        "me",
        "t"
      ],
      [
        "ai",
        "r"
      ],
      [
        "reason",
        "ably"
      ],
      [
        "le",
        "ment"
      ],
      [
        "f",
        "un"
      ],
      [
        "pr",
        "of"
      ],
      [
        "s",
        "ale"
      ],
      [
        "su",
        "re"
      ],
      [
        "fr",
        "ont"
      ],
      [
        "sup",
        "port"
      ],
      [
        "l",
        "ong"
      ],
      [
        "st",
        "ru"
      ],
      [
        "fi",
        "ci"
      ],
      [
        "chan",
        "ges"
      ],
      [
        "restri",
        "ctions"
      ],
      [
        "r",
        "y"
      ],
      [
        "constitut",
        "es"
      ],
      [
        "v",
        "ing"
      ],
      [
        "cont",
        "in"
      ],
      [
        "pl",
        "ac"
      ],
      [
        "schutzgegenstand",
        "es"
      ],
      [
        "beding",
        "ungen"
      ],
      [
        "i",
        "h"
      ],
      [
        "re",
        "distributions"
      ],
      [
        "cho",
        "ose"
      ],
      [
        "preser",
        "ve"
      ],
      [
        "ation",
        "al"
      ],
      [
        "exer",
        "c"
      ],
      [
        "indi",
        "c"
      ],
      [
        "ung",
        "s"
      ],
      [
        "f",
        "ont"
      ],
      [
        "o",
        "per"
      ],
      [
        "parti",
        "cip"
      ],
      [
        "jurisdi",
        "ction"
      ],
      [
        "examp",
        "le"
      ],
      [
        "tig",
        "ation"
      ],
      [
        "1",
        "3"
      ],
      [
        "t",
        "re"
      ],
      [
        "be",
        "tw"
      ],
      [
        "dep",
        "end"
      ],
      [
        "indem",
        "n"
      ],
      [
        "betw",
        "een"
      ],
      [
        "b",
        "us"
      ],
      [
        "n",
        "icht"
      ],
      [
        "in",
        "s"
      ],
      [
        "in",
        "ess"
      ],
      [
        "an",
        "n"
      ],
      [
        "li",
        "tigation"
      ],
      [
        "fur",
        "ther"
      ],
      [
        "exerc",
        "ising"
      ],
      [
        "bus",
        "iness"
      ],
      [
        "g",
        "reg"
      ],
      [
        "un",
        "e"
      ],
      [
        "su",
        "it"
      ],
      [
        "fir",
        "st"
      ],
      [
        "digit",
        "al"
      ],
      [
        "associ",
        "ated"
      ],
      [
        "k",
        "now"
      ],
      [
        "eff",
        "ective"
      ],
      [
        "imp",
        "ose"
      ],
      [
        "rech",
        "te"
      ],
      [
        "ron",
        "ic"
      ],
      [
        "elect",
        "ronic"
      ],
      [
        "j",
        "u"
      ],
      [
        "v",
        "an"
      ],
      [
        "ac",
        "comp"
      ],
      [
        "govern",
        "ment"
      ],
      [
        "se",
        "e"
      ],
      [
        "ag",
        "greg"
      ],
      [
        "require",
        "ments"
      ],
      [
        "k",
        "en"
      ],
      [
        "vi",
        "ol"
      ],
      [
        "comp",
        "on"
      ],
      [
        "gi",
        "ve"
      ],
      [
        "i",
        "ve"
      ],
      [
        "ar",
        "ch"
      ],
      [
        "con",
        "tributions"
      ],
      [
        "so",
        "le"
      ],
      [
        "comp",
        "lete"
      ],
      [
        "format",
        "s"
      ],
      [
        "tech",
        "n"
      ],
      [
        "re",
        "distribution"
      ],
      [
        "av",
        "o"
      ],
      [
        "lat",
        "er"
      ],
      [
        "owner",
        "ship"
      ],
      [
        "co",
        "ur"
      ],
      [
        "rel",
        "ating"
      ],
      [
        "defini",
        "tions"
      ],
      [
        "behal",
        "f"
      ],
      [
        "de",
        "t"
      ],
      [
        "ll",
        "ed"
      ],
      [
        "possib",
        "le"
      ],
      [
        "particip",
        "ant"
      ],
      [
        "n",
        "ational"
      ],
      [
        "material",
        "s"
      ],
      [
        "cu",
        "re"
      ],
      [
        "m",
        "m"
      ],
      [
        "iv",
        "al"
      ],
      [
        "rele",
        "ased"
      ],
      [
        "lin",
        "k"
      ],
      [
        "co",
        "u"
      ],
      [
        "any",
        "one"
      ],
      [
        "ne",
        "ed"
      ],
      [
        "defini",
        "tion"
      ],
      [
        "g",
        "ed"
      ],
      [
        "un",
        "t"
      ],
      [
        "u",
        "ti"
      ],
      [
        "at",
        "es"
      ],
      [
        "dur",
        "ch"
      ],
      [
        "par",
        "ent"
      ],
      [
        "specifi",
        "ed"
      ],
      [
        "describ",
        "ed"
      ],
      [
        "avo",
        "id"
      ],
      [
        "arran",
        "ge"
      ],
      [
        "d",
        "as"
      ],
      [
        "s",
        "ent"
      ],
      [
        "re",
        "mo"
      ],
      [
        "comp",
        "il"
      ],
      [
        "por",
        "tion"
      ],
      [
        "trans",
        "parent"
      ],
      [
        "li",
        "ke"
      ],
      [
        "cons",
        "ent"
      ],
      [
        "r",
        "ent"
      ],
      [
        "r",
        "cu"
      ],
      [
        "ci",
        "rcu"
      ],
      [
        "depend",
        "ent"
      ],
      [
        "royal",
        "ties"
      ],
      [
        "trademark",
        "s"
      ],
      [
        "sur",
        "vi"
      ],
      [
        "a",
        "ff"
      ],
      [
        "f",
        "reed"
      ],
      [
        "trans",
        "fer"
      ],
      [
        "rel",
        "ation"
      ],
      [
        "survi",
        "ve"
      ],
      [
        "freed",
        "om"
      ],
      [
        "s",
        "ation"
      ],
      [
        "mu",
        "m"
      ],
      [
        "bo",
        "th"
      ],
      [
        "b",
        "t"
      ],
      [
        "r",
        "un"
      ],
      [
        "re",
        "distribute"
      ],
      [
        "org",
        "an"
      ],
      [
        "w",
        "are"
      ],
      [
        "al",
        "s"
      ],
      [
        "un",
        "modified"
      ],
      [
        "ex",
        "emp"
      ],
      [
        "represent",
        "ations"
      ],
      [
        "lan",
        "gu"
      ],
      [
        "w",
        "as"
      ],
      [
        "an",
        "other"
      ],
      [
        "ri",
        "es"
      ],
      [
        "si",
        "cal"
      ],
      [
        "enti",
        "ties"
      ],
      [
        "die",
        "se"
      ],
      [
        "corpor",
        "ation"
      ],
      [
        "________",
        "________"
      ],
      [
        "incorpor",
        "ated"
      ],
      [
        "r",
        "is"
      ],
      [
        "combin",
        "ed"
      ],
      [
        "accept",
        "ance"
      ],
      [
        "langu",
        "age"
      ],
      [
        "d",
        "ou"
      ],
      [
        "n",
        "at"
      ],
      [
        "adapt",
        "ation"
      ],
      [
        "in",
        "dependent"
      ],
      [
        "limit",
        "ations"
      ],
      [
        "lich",
        "e"
      ],
      [
        "rece",
        "ive"
      ],
      [
        "responsib",
        "le"
      ],
      [
        "u",
        "res"
      ],
      [
        "y",
        "ear"
      ],
      [
        "ar",
        "t"
      ],
      [
        "trans",
        "lation"
      ],
      [
        "refer",
        "s"
      ],
      [
        "aff",
        "ect"
      ],
      [
        "wor",
        "d"
      ],
      [
        "we",
        "b"
      ],
      [
        "reg",
        "ard"
      ],
      [
        "equ",
        "ival"
      ],
      [
        "dou",
        "bt"
      ],
      [
        "pro",
        "mo"
      ],
      [
        "lo",
        "y"
      ],
      [
        "contain",
        "ed"
      ],
      [
        "holder",
        "s"
      ],
      [
        "b",
        "ack"
      ],
      [
        "res",
        "ource"
      ],
      [
        "ca",
        "used"
      ],
      [
        "l",
        "s"
      ],
      [
        "s",
        "ing"
      ],
      [
        "v",
        "ol"
      ],
      [
        "al",
        "ong"
      ],
      [
        "medi",
        "a"
      ],
      [
        "authoriz",
        "ed"
      ],
      [
        "equival",
        "ent"
      ],
      [
        "p",
        "rac"
      ],
      [
        "or",
        "t"
      ],
      [
        "inst",
        "all"
      ],
      [
        "v",
        "ant"
      ],
      [
        "other",
        "s"
      ],
      [
        "ac",
        "cord"
      ],
      [
        "cover",
        "s"
      ],
      [
        "e",
        "p"
      ],
      [
        "p",
        "le"
      ],
      [
        "ar",
        "tic"
      ],
      [
        "mach",
        "ine"
      ],
      [
        "contin",
        "ue"
      ],
      [
        "artic",
        "le"
      ],
      [
        "or",
        "der"
      ],
      [
        "al",
        "one"
      ],
      [
        "ack",
        "nowledge"
      ],
      [
        "world",
        "wide"
      ],
      [
        "prof",
        "its"
      ],
      [
        "reg",
        "u"
      ],
      [
        "main",
        "tain"
      ],
      [
        "iz",
        "ation"
      ],
      [
        "avoid",
        "ance"
      ],
      [
        "circu",
        "m"
      ],
      [
        "i",
        "ma"
      ],
      [
        "as",
        "su"
      ],
      [
        "so",
        "ever"
      ],
      [
        "exclu",
        "sion"
      ],
      [
        "good",
        "s"
      ],
      [
        "m",
        "l"
      ],
      [
        "p",
        "i"
      ],
      [
        "se",
        "con"
      ],
      [
        "ed",
        "er"
      ],
      [
        "de",
        "e"
      ],
      [
        "it",
        "ed"
      ],
      [
        "with",
        "standing"
      ],
      [
        "not",
        "withstanding"
      ],
      [
        "comp",
        "ati"
      ],
      [
        "cer",
        "tain"
      ],
      [
        "exemp",
        "l"
      ],
      [
        "da",
        "ys"
      ],
      [
        "what",
        "soever"
      ],
      [
        "dee",
        "med"
      ],
      [
        "no",
        "log"
      ],
      [
        "si",
        "gn"
      ],
      [
        "colle",
        "ct"
      ],
      [
        "tech",
        "nolog"
      ],
      [
        "h",
        "o"
      ],
      [
        "s",
        "ite"
      ],
      [
        "ri",
        "ly"
      ],
      [
        "man",
        "ual"
      ],
      [
        "con",
        "cern"
      ],
      [
        "me",
        "l"
      ],
      [
        "read",
        "able"
      ],
      [
        "sa",
        "m"
      ],
      [
        "use",
        "s"
      ],
      [
        "te",
        "t"
      ],
      [
        "stat",
        "ing"
      ],
      [
        "exempl",
        "ary"
      ],
      [
        "v",
        "re"
      ],
      [
        "dama",
        "ge"
      ],
      [
        "contain",
        "ing"
      ],
      [
        "ste",
        "ll"
      ],
      [
        "indirect",
        "ly"
      ],
      [
        "resul",
        "t"
      ],
      [
        "fail",
        "ure"
      ],
      [
        "ww",
        "w"
      ],
      [
        "fun",
        "ction"
      ],
      [
        "h",
        "ist"
      ],
      [
        "ü",
        "ber"
      ],
      [
        "qu",
        "a"
      ],
      [
        "cor",
        "ding"
      ],
      [
        "termin",
        "ated"
      ],
      [
        "rech",
        "t"
      ],
      [
        "w",
        "n"
      ],
      [
        "pro",
        "cess"
      ],
      [
        "me",
        "chan"
      ],
      [
        "wh",
        "ose"
      ],
      [
        "cont",
        "act"
      ],
      [
        "we",
        "ll"
      ],
      [
        "f",
        "ut"
      ],
      [
        "er",
        "s"
      ],
      [
        "ex",
        "cep"
      ],
      [
        "fut",
        "ure"
      ],
      [
        "p",
        "s"
      ],
      [
        "li",
        "e"
      ],
      [
        "pro",
        "hibit"
      ],
      [
        "ai",
        "d"
      ],
      [
        "lo",
        "cation"
      ],
      [
        "ph",
        "y"
      ],
      [
        "stat",
        "es"
      ],
      [
        "op",
        "tion"
      ],
      [
        "rele",
        "ase"
      ],
      [
        "prote",
        "ct"
      ],
      [
        "ö",
        "ff"
      ],
      [
        "lic",
        "it"
      ],
      [
        "ver",
        "s"
      ],
      [
        "ag",
        "ra"
      ],
      [
        "promo",
        "te"
      ],
      [
        "öff",
        "ent"
      ],
      [
        "c",
        "y"
      ],
      [
        "distribut",
        "or"
      ],
      [
        "desc",
        "rip"
      ],
      [
        "con",
        "f"
      ],
      [
        "int",
        "act"
      ],
      [
        "ris",
        "k"
      ],
      [
        "mo",
        "du"
      ],
      [
        "par",
        "agra"
      ],
      [
        "tit",
        "ute"
      ],
      [
        "paragra",
        "ph"
      ],
      [
        "g",
        "ü"
      ],
      [
        "r",
        "up"
      ],
      [
        "as",
        "ser"
      ],
      [
        "tit",
        "les"
      ],
      [
        "ii",
        "i"
      ],
      [
        "ite",
        "m"
      ],
      [
        "ad",
        "ded"
      ],
      [
        "pe",
        "t"
      ],
      [
        "ld",
        "ap"
      ],
      [
        "ha",
        "ving"
      ],
      [
        "author",
        "ship"
      ],
      [
        "exclu",
        "ding"
      ],
      [
        "open",
        "ldap"
      ],
      [
        "communic",
        "ation"
      ],
      [
        "det",
        "ail"
      ],
      [
        "al",
        "le"
      ],
      [
        "ing",
        "s"
      ],
      [
        "per",
        "pet"
      ],
      [
        "vi",
        "a"
      ],
      [
        "permission",
        "s"
      ],
      [
        "inter",
        "pre"
      ],
      [
        "digit",
        "ally"
      ],
      [
        "p",
        "ag"
      ],
      [
        "ih",
        "nen"
      ],
      [
        "de",
        "al"
      ],
      [
        "compil",
        "ation"
      ],
      [
        "öffent",
        "lich"
      ],
      [
        "b",
        "ra"
      ],
      [
        "o",
        "k"
      ],
      [
        "p",
        "ay"
      ],
      [
        "th",
        "us"
      ],
      [
        "ate",
        "ly"
      ],
      [
        "provi",
        "des"
      ],
      [
        "ke",
        "ep"
      ],
      [
        "rech",
        "ts"
      ],
      [
        "jurisdi",
        "ctions"
      ],
      [
        "b",
        "ase"
      ],
      [
        "h",
        "in"
      ],
      [
        "m",
        "ber"
      ],
      [
        "s",
        "aid"
      ],
      [
        "an",
        "s"
      ],
      [
        "form",
        "ed"
      ],
      [
        "add",
        "res"
      ],
      [
        "design",
        "ed"
      ],
      [
        "aggreg",
        "ate"
      ],
      [
        "techn",
        "ical"
      ],
      [
        "secon",
        "d"
      ],
      [
        "a",
        "que"
      ],
      [
        "n",
        "al"
      ],
      [
        "o",
        "eu"
      ],
      [
        "s",
        "c"
      ],
      [
        "w",
        "ard"
      ],
      [
        "li",
        "for"
      ],
      [
        "un",
        "enforceable"
      ],
      [
        "ab",
        "s"
      ],
      [
        "licens",
        "able"
      ],
      [
        "ca",
        "lifor"
      ],
      [
        "disclaimer",
        "s"
      ],
      [
        "design",
        "ated"
      ],
      [
        "organ",
        "ization"
      ],
      [
        "califor",
        "ni"
      ],
      [
        "b",
        "it"
      ],
      [
        "l",
        "t"
      ],
      [
        "co",
        "unt"
      ],
      [
        "trans",
        "l"
      ],
      [
        "responsib",
        "ility"
      ],
      [
        "allow",
        "ed"
      ],
      [
        "exp",
        "licit"
      ],
      [
        "plac",
        "ed"
      ],
      [
        "accomp",
        "any"
      ],
      [
        "californi",
        "a"
      ],
      [
        "du",
        "e"
      ],
      [
        "sch",
        "e"
      ],
      [
        "offer",
        "s"
      ],
      [
        "fa",
        "ce"
      ],
      [
        "viol",
        "ation"
      ],
      [
        "r",
        "é"
      ],
      [
        "u",
        "ri"
      ],
      [
        "w",
        "ä"
      ],
      [
        "es",
        "ted"
      ],
      [
        "un",
        "ited"
      ],
      [
        "ig",
        "en"
      ],
      [
        "inter",
        "face"
      ],
      [
        "cons",
        "ist"
      ],
      [
        "ph",
        "on"
      ],
      [
        "wai",
        "ver"
      ],
      [
        "wi",
        "r"
      ],
      [
        "c",
        "ar"
      ],
      [
        "g",
        "pl"
      ],
      [
        "z",
        "us"
      ],
      [
        "en",
        "cy"
      ],
      [
        "me",
        "as"
      ],
      [
        "ac",
        "quire"
      ],
      [
        "so",
        "l"
      ],
      [
        "lo",
        "go"
      ],
      [
        "ca",
        "st"
      ],
      [
        "stat",
        "ut"
      ],
      [
        "im",
        "medi"
      ],
      [
        "hist",
        "ory"
      ],
      [
        "abs",
        "ence"
      ],
      [
        "c",
        "ap"
      ],
      [
        "d",
        "ro"
      ],
      [
        "ge",
        "t"
      ],
      [
        "sa",
        "tis"
      ],
      [
        "offer",
        "ed"
      ],
      [
        "compati",
        "ble"
      ],
      [
        "descrip",
        "tion"
      ],
      [
        "second",
        "ary"
      ],
      [
        "c",
        "ing"
      ],
      [
        "n",
        "it"
      ],
      [
        "condi",
        "tion"
      ],
      [
        "reg",
        "ar"
      ],
      [
        "own",
        "ed"
      ],
      [
        "individual",
        "s"
      ],
      [
        "statut",
        "ory"
      ],
      [
        "h",
        "et"
      ],
      [
        "be",
        "com"
      ],
      [
        "can",
        "not"
      ],
      [
        "cur",
        "rent"
      ],
      [
        "perpet",
        "ual"
      ],
      [
        "regar",
        "ding"
      ],
      [
        "h",
        "en"
      ],
      [
        "s",
        "en"
      ],
      [
        "ci",
        "el"
      ],
      [
        "gi",
        "ciel"
      ],
      [
        "sc",
        "rip"
      ],
      [
        "f",
        "air"
      ],
      [
        "is",
        "m"
      ],
      [
        "mo",
        "st"
      ],
      [
        "pr",
        "é"
      ],
      [
        "clear",
        "ly"
      ],
      [
        "prac",
        "tic"
      ],
      [
        "regu",
        "lation"
      ],
      [
        "mechan",
        "ism"
      ],
      [
        "c",
        "c"
      ],
      [
        "en",
        "g"
      ],
      [
        "ag",
        "reed"
      ],
      [
        "sub",
        "stan"
      ],
      [
        "op",
        "aque"
      ],
      [
        "cou",
        "ld"
      ],
      [
        "inter",
        "rup"
      ],
      [
        "meas",
        "ures"
      ],
      [
        "substan",
        "ti"
      ],
      [
        "c",
        "all"
      ],
      [
        "is",
        "ch"
      ],
      [
        "ab",
        "les"
      ],
      [
        "per",
        "i"
      ],
      [
        "lo",
        "giciel"
      ],
      [
        "imp",
        "ort"
      ],
      [
        "contro",
        "lled"
      ],
      [
        "uni",
        "vers"
      ],
      [
        "cost",
        "s"
      ],
      [
        "prin",
        "cip"
      ],
      [
        "l",
        "ti"
      ],
      [
        "is",
        "ting"
      ],
      [
        "con",
        "ven"
      ],
      [
        "pro",
        "ject"
      ],
      [
        "inter",
        "national"
      ],
      [
        "ta",
        "ke"
      ],
      [
        "indemn",
        "ity"
      ],
      [
        "sam",
        "mel"
      ],
      [
        "f",
        "all"
      ],
      [
        "r",
        "en"
      ],
      [
        "comp",
        "en"
      ],
      [
        "convey",
        "ing"
      ],
      [
        "consist",
        "ent"
      ],
      [
        "immedi",
        "ately"
      ],
      [
        "g",
        "lich"
      ],
      [
        "m",
        "ini"
      ],
      [
        "é",
        "e"
      ],
      [
        "cho",
        "i"
      ],
      [
        "supp",
        "lied"
      ],
      [
        "uti",
        "liz"
      ],
      [
        "i",
        "ed"
      ],
      [
        "an",
        "e"
      ],
      [
        "ar",
        "tis"
      ],
      [
        "sion",
        "s"
      ],
      [
        "ge",
        "wä"
      ],
      [
        "agreement",
        "s"
      ],
      [
        "disclaim",
        "s"
      ],
      [
        "remo",
        "ve"
      ],
      [
        "h",
        "l"
      ],
      [
        "l",
        "ing"
      ],
      [
        "re",
        "ction"
      ],
      [
        "de",
        "le"
      ],
      [
        "con",
        "stru"
      ],
      [
        "do",
        "wn"
      ],
      [
        "form",
        "s"
      ],
      [
        "person",
        "al"
      ],
      [
        "oeu",
        "vre"
      ],
      [
        "compen",
        "sation"
      ],
      [
        "choi",
        "ce"
      ],
      [
        "ti",
        "mm"
      ],
      [
        "ab",
        "sch"
      ],
      [
        "mp",
        "t"
      ],
      [
        "sub",
        "s"
      ],
      [
        "expres",
        "sed"
      ],
      [
        "reprodu",
        "ction"
      ],
      [
        "ane",
        "ous"
      ],
      [
        "absch",
        "nit"
      ],
      [
        "z",
        "w"
      ],
      [
        "al",
        "leg"
      ],
      [
        "ne",
        "ither"
      ],
      [
        "lo",
        "ad"
      ],
      [
        "ext",
        "en"
      ],
      [
        "sib",
        "le"
      ],
      [
        "offer",
        "ing"
      ],
      [
        "stri",
        "ct"
      ],
      [
        "know",
        "n"
      ],
      [
        "k",
        "nowledge"
      ],
      [
        "re",
        "vo"
      ],
      [
        "imp",
        "lement"
      ],
      [
        "ein",
        "es"
      ],
      [
        "dep",
        "loy"
      ],
      [
        "gewä",
        "hr"
      ],
      [
        "ma",
        "il"
      ],
      [
        "ke",
        "ine"
      ],
      [
        "ein",
        "er"
      ],
      [
        "f",
        "ol"
      ],
      [
        "s",
        "ses"
      ],
      [
        "or",
        "d"
      ],
      [
        "infring",
        "ed"
      ],
      [
        "restri",
        "ction"
      ],
      [
        "b",
        "ar"
      ],
      [
        "c",
        "ent"
      ],
      [
        "h",
        "er"
      ],
      [
        "i",
        "le"
      ],
      [
        "x",
        "i"
      ],
      [
        "le",
        "ft"
      ],
      [
        "lo",
        "sses"
      ],
      [
        "pri",
        "v"
      ],
      [
        "refer",
        "ence"
      ],
      [
        "servi",
        "ce"
      ],
      [
        "prote",
        "ction"
      ],
      [
        "artis",
        "tic"
      ],
      [
        "e",
        "it"
      ],
      [
        "w",
        "and"
      ],
      [
        "er",
        "r"
      ],
      [
        "an",
        "g"
      ],
      [
        "list",
        "ed"
      ],
      [
        "199",
        "5"
      ],
      [
        "dur",
        "ation"
      ],
      [
        "practic",
        "able"
      ],
      [
        "b",
        "ound"
      ],
      [
        "d",
        "on"
      ],
      [
        "li",
        "ties"
      ],
      [
        "tw",
        "o"
      ],
      [
        "sel",
        "ves"
      ],
      [
        "them",
        "selves"
      ],
      [
        "mini",
        "mum"
      ],
      [
        "d",
        "y"
      ],
      [
        "d",
        "é"
      ],
      [
        "i",
        "ll"
      ],
      [
        "s",
        "ind"
      ],
      [
        "ti",
        "e"
      ],
      [
        "si",
        "ch"
      ],
      [
        "free",
        "ly"
      ],
      [
        "every",
        "one"
      ],
      [
        "requ",
        "ested"
      ],
      [
        "concern",
        "ing"
      ],
      [
        "univers",
        "ity"
      ],
      [
        "k",
        "ing"
      ],
      [
        "s",
        "cop"
      ],
      [
        "s",
        "ound"
      ],
      [
        "modify",
        "ing"
      ],
      [
        "compon",
        "ent"
      ],
      [
        "sing",
        "le"
      ],
      [
        "call",
        "ed"
      ],
      [
        "scop",
        "e"
      ],
      [
        "g",
        "ment"
      ],
      [
        "h",
        "ard"
      ],
      [
        "pers",
        "ons"
      ],
      [
        "sto",
        "p"
      ],
      [
        "develop",
        "ment"
      ],
      [
        "nutz",
        "ungs"
      ],
      [
        "ima",
        "ge"
      ],
      [
        "conf",
        "lic"
      ],
      [
        "interrup",
        "tion"
      ],
      [
        "e",
        "m"
      ],
      [
        "f",
        "ra"
      ],
      [
        "x",
        "y"
      ],
      [
        "ct",
        "ure"
      ],
      [
        "tra",
        "de"
      ],
      [
        "reser",
        "ves"
      ],
      [
        "identifi",
        "ed"
      ],
      [
        "stan",
        "ces"
      ],
      [
        "sole",
        "ly"
      ],
      [
        "arrange",
        "ment"
      ],
      [
        "circum",
        "stances"
      ],
      [
        "qua",
        "lity"
      ],
      [
        "hard",
        "ware"
      ],
      [
        "b",
        "u"
      ],
      [
        "f",
        "in"
      ],
      [
        "s",
        "in"
      ],
      [
        "disclaim",
        "ed"
      ],
      [
        "who",
        "m"
      ],
      [
        "identifi",
        "er"
      ],
      [
        "ben",
        "e"
      ],
      [
        "relation",
        "ship"
      ],
      [
        "f",
        "en"
      ],
      [
        "s",
        "p"
      ],
      [
        "ce",
        "ll"
      ],
      [
        "su",
        "f"
      ],
      [
        "identi",
        "fy"
      ],
      [
        "fa",
        "ci"
      ],
      [
        "endorse",
        "ments"
      ],
      [
        "bes",
        "ch"
      ],
      [
        "word",
        "s"
      ],
      [
        "d",
        "ar"
      ],
      [
        "i",
        "se"
      ],
      [
        "m",
        "ut"
      ],
      [
        "is",
        "tic"
      ],
      [
        "com",
        "pu"
      ],
      [
        "copy",
        "left"
      ],
      [
        "ow",
        "eit"
      ],
      [
        "gra",
        "ph"
      ],
      [
        "commerci",
        "ally"
      ],
      [
        "pl",
        "us"
      ],
      [
        "ati",
        "ves"
      ],
      [
        "accord",
        "ance"
      ],
      [
        "prohibit",
        "ed"
      ],
      [
        "n",
        "ing"
      ],
      [
        "re",
        "formed"
      ],
      [
        "ad",
        "ver"
      ],
      [
        "contribut",
        "e"
      ],
      [
        "pur",
        "su"
      ],
      [
        "lich",
        "en"
      ],
      [
        "rele",
        "vant"
      ],
      [
        "state",
        "ment"
      ],
      [
        "dra",
        "w"
      ],
      [
        "isch",
        "en"
      ],
      [
        "abschnit",
        "t"
      ],
      [
        "f",
        "ä"
      ],
      [
        "u",
        "ish"
      ],
      [
        "re",
        "qui"
      ],
      [
        "ex",
        "ter"
      ],
      [
        "dis",
        "ting"
      ],
      [
        "require",
        "ment"
      ],
      [
        "individu",
        "ally"
      ],
      [
        "propri",
        "et"
      ],
      [
        "ls",
        "ory"
      ],
      [
        "car",
        "ry"
      ],
      [
        "compu",
        "lsory"
      ],
      [
        "pursu",
        "ant"
      ],
      [
        "disting",
        "uish"
      ],
      [
        "利",
        "用"
      ],
      [
        "li",
        "ter"
      ],
      [
        "gen",
        "ann"
      ],
      [
        "comm",
        "on"
      ],
      [
        "mis",
        "cell"
      ],
      [
        "bo",
        "ok"
      ],
      [
        "cour",
        "t"
      ],
      [
        "satis",
        "fy"
      ],
      [
        "miscell",
        "aneous"
      ],
      [
        "p",
        "ass"
      ],
      [
        "ou",
        "gh"
      ],
      [
        "wi",
        "e"
      ],
      [
        "pro",
        "cure"
      ],
      [
        "cu",
        "sto"
      ],
      [
        "if",
        "y"
      ],
      [
        "distribut",
        "es"
      ],
      [
        "ag",
        "ency"
      ],
      [
        "technolog",
        "ical"
      ],
      [
        "constru",
        "ed"
      ],
      [
        "r",
        "ation"
      ],
      [
        "an",
        "ge"
      ],
      [
        "re",
        "vised"
      ],
      [
        "ver",
        "gü"
      ],
      [
        "te",
        "il"
      ],
      [
        "ded",
        "ic"
      ],
      [
        "he",
        "ld"
      ],
      [
        "fici",
        "ent"
      ],
      [
        "subs",
        "titute"
      ],
      [
        "conflic",
        "t"
      ],
      [
        "requi",
        "res"
      ],
      [
        "vergü",
        "t"
      ],
      [
        "4",
        "8"
      ],
      [
        "in",
        "put"
      ],
      [
        "at",
        "t"
      ],
      [
        "ow",
        "er"
      ],
      [
        "here",
        "after"
      ],
      [
        "there",
        "fore"
      ],
      [
        "way",
        "s"
      ],
      [
        "fe",
        "es"
      ],
      [
        "describ",
        "e"
      ],
      [
        "suf",
        "ficient"
      ],
      [
        "propriet",
        "ary"
      ],
      [
        "procure",
        "ment"
      ],
      [
        "g",
        "rou"
      ],
      [
        "m",
        "s"
      ],
      [
        "be",
        "g"
      ],
      [
        "provi",
        "ding"
      ],
      [
        "mark",
        "s"
      ],
      [
        "fici",
        "al"
      ],
      [
        "d",
        "ass"
      ],
      [
        "t",
        "é"
      ],
      [
        "in",
        "cur"
      ],
      [
        "cont",
        "r"
      ],
      [
        "ru",
        "les"
      ],
      [
        "asser",
        "t"
      ],
      [
        "o",
        "s"
      ],
      [
        "t",
        "te"
      ],
      [
        "pre",
        "v"
      ],
      [
        "ack",
        "nowled"
      ],
      [
        "infring",
        "es"
      ],
      [
        "commun",
        "ity"
      ],
      [
        "e",
        "ty"
      ],
      [
        "u",
        "istic"
      ],
      [
        "in",
        "valid"
      ],
      [
        "at",
        "tor"
      ],
      [
        "it",
        "en"
      ],
      [
        "cl",
        "a"
      ],
      [
        "tra",
        "g"
      ],
      [
        "read",
        "y"
      ],
      [
        "substanti",
        "al"
      ],
      [
        "ling",
        "uistic"
      ],
      [
        "6",
        "0"
      ],
      [
        "g",
        "ing"
      ],
      [
        "en",
        "sure"
      ],
      [
        "par",
        "ts"
      ],
      [
        "ac",
        "cep"
      ],
      [
        "ir",
        "revo"
      ],
      [
        "stat",
        "ute"
      ],
      [
        "200",
        "0"
      ],
      [
        "compon",
        "ents"
      ],
      [
        "alleg",
        "ing"
      ],
      [
        "attor",
        "ne"
      ],
      [
        "irrevo",
        "c"
      ],
      [
        "w",
        "ant"
      ],
      [
        "at",
        "te"
      ],
      [
        "ar",
        "bit"
      ],
      [
        "fi",
        "f"
      ],
      [
        "be",
        "ar"
      ],
      [
        "pre",
        "am"
      ],
      [
        "inst",
        "ru"
      ],
      [
        "prin",
        "ted"
      ],
      [
        "tre",
        "at"
      ],
      [
        "suit",
        "able"
      ],
      [
        "exten",
        "sions"
      ],
      [
        "pream",
        "ble"
      ],
      [
        "w",
        "ish"
      ],
      [
        "mu",
        "sical"
      ],
      [
        "mu",
        "lti"
      ],
      [
        "ke",
        "t"
      ],
      [
        "nat",
        "ure"
      ],
      [
        "incur",
        "red"
      ],
      [
        "i",
        "de"
      ],
      [
        "j",
        "e"
      ],
      [
        "v",
        "al"
      ],
      [
        "許",
        "諾"
      ],
      [
        "al",
        "ready"
      ],
      [
        "licen",
        "tie"
      ],
      [
        "ect",
        "s"
      ],
      [
        "pre",
        "fer"
      ],
      [
        "we",
        "ise"
      ],
      [
        "repres",
        "ents"
      ],
      [
        "system",
        "s"
      ],
      [
        "install",
        "ation"
      ],
      [
        "a",
        "ut"
      ],
      [
        "m",
        "ar"
      ],
      [
        "w",
        "en"
      ],
      [
        "ver",
        "bre"
      ],
      [
        "ty",
        "pe"
      ],
      [
        "cre",
        "ation"
      ],
      [
        "pres",
        "ent"
      ],
      [
        "alter",
        "ed"
      ],
      [
        "restrict",
        "ed"
      ],
      [
        "phy",
        "sical"
      ],
      [
        "m",
        "al"
      ],
      [
        "s",
        "oweit"
      ],
      [
        "w",
        "ere"
      ],
      [
        "ü",
        "c"
      ],
      [
        "pro",
        "pag"
      ],
      [
        "ge",
        "l"
      ],
      [
        "govern",
        "ing"
      ],
      [
        "el",
        "se"
      ],
      [
        "uni",
        "form"
      ],
      [
        "adap",
        "ted"
      ],
      [
        "ple",
        "ase"
      ],
      [
        "addres",
        "s"
      ],
      [
        "ord",
        "in"
      ],
      [
        "distinguish",
        "ing"
      ],
      [
        "l",
        "ine"
      ],
      [
        "m",
        "on"
      ],
      [
        "re",
        "es"
      ],
      [
        "is",
        "su"
      ],
      [
        "ma",
        "rily"
      ],
      [
        "ac",
        "ti"
      ],
      [
        "chan",
        "ged"
      ],
      [
        "nutz",
        "ung"
      ],
      [
        "2",
        "2"
      ],
      [
        "t",
        "ri"
      ],
      [
        "at",
        "ory"
      ],
      [
        "as",
        "se"
      ],
      [
        "si",
        "de"
      ],
      [
        "cl",
        "ose"
      ],
      [
        "ag",
        "rees"
      ],
      [
        "ne",
        "ts"
      ],
      [
        "non",
        "infringement"
      ],
      [
        "ess",
        "ential"
      ],
      [
        "oblig",
        "ation"
      ],
      [
        "indemn",
        "ify"
      ],
      [
        "att",
        "ach"
      ],
      [
        "atte",
        "mpt"
      ],
      [
        "nets",
        "cap"
      ],
      [
        "3",
        "0"
      ],
      [
        "f",
        "act"
      ],
      [
        "す",
        "る"
      ],
      [
        "er",
        "en"
      ],
      [
        "in",
        "ability"
      ],
      [
        "st",
        "or"
      ],
      [
        "be",
        "fore"
      ],
      [
        "go",
        "ing"
      ],
      [
        "ser",
        "ver"
      ],
      [
        "199",
        "6"
      ],
      [
        "vali",
        "di"
      ],
      [
        "modu",
        "les"
      ],
      [
        "netscap",
        "e"
      ],
      [
        "f",
        "ran"
      ],
      [
        "li",
        "bra"
      ],
      [
        "deriv",
        "atives"
      ],
      [
        "excep",
        "tion"
      ],
      [
        "sin",
        "ne"
      ],
      [
        "prefer",
        "red"
      ],
      [
        "validi",
        "ty"
      ],
      [
        "libra",
        "ries"
      ],
      [
        "i",
        "led"
      ],
      [
        "m",
        "b"
      ],
      [
        "著",
        "作"
      ],
      [
        "re",
        "place"
      ],
      [
        "ex",
        "change"
      ],
      [
        "vi",
        "e"
      ],
      [
        "here",
        "of"
      ],
      [
        "sa",
        "y"
      ],
      [
        "specific",
        "ally"
      ],
      [
        "cc",
        "pl"
      ],
      [
        "conven",
        "tion"
      ],
      [
        "sammel",
        "werk"
      ],
      [
        "fol",
        "gen"
      ],
      [
        "liter",
        "ary"
      ],
      [
        "p",
        "ower"
      ],
      [
        "to",
        "ge"
      ],
      [
        "ce",
        "ed"
      ],
      [
        "ver",
        "z"
      ],
      [
        "ab",
        "wand"
      ],
      [
        "comp",
        "iled"
      ],
      [
        "licensor",
        "s"
      ],
      [
        "colle",
        "ctions"
      ],
      [
        "def",
        "ects"
      ],
      [
        "exclu",
        "ded"
      ],
      [
        "gener",
        "ally"
      ],
      [
        "execut",
        "ables"
      ],
      [
        "200",
        "2"
      ],
      [
        "indic",
        "ate"
      ],
      [
        "pay",
        "ment"
      ],
      [
        "toge",
        "ther"
      ],
      [
        "abwand",
        "l"
      ],
      [
        "j",
        "ed"
      ],
      [
        "st",
        "re"
      ],
      [
        "specifi",
        "es"
      ],
      [
        "char",
        "act"
      ],
      [
        "lat",
        "ex"
      ],
      [
        "exter",
        "nal"
      ],
      [
        "verbre",
        "iten"
      ],
      [
        "vie",
        "w"
      ],
      [
        "p",
        "lic"
      ],
      [
        "ä",
        "um"
      ],
      [
        "ch",
        "e"
      ],
      [
        "du",
        "plic"
      ],
      [
        "provi",
        "der"
      ],
      [
        "po",
        "st"
      ],
      [
        "jur",
        "y"
      ],
      [
        "zu",
        "g"
      ],
      [
        "receiv",
        "es"
      ],
      [
        "exp",
        "en"
      ],
      [
        "communic",
        "ate"
      ],
      [
        "examp",
        "les"
      ],
      [
        "ful",
        "fi"
      ],
      [
        "acknowledge",
        "ments"
      ],
      [
        "scrip",
        "ts"
      ],
      [
        "graph",
        "ic"
      ],
      [
        "a",
        "ute"
      ],
      [
        "g",
        "le"
      ],
      [
        "t",
        "ary"
      ],
      [
        "fer",
        "o"
      ],
      [
        "af",
        "fero"
      ],
      [
        "giv",
        "es"
      ],
      [
        "assu",
        "me"
      ],
      [
        "sign",
        "ed"
      ],
      [
        "wir",
        "d"
      ],
      [
        "pré",
        "sent"
      ],
      [
        "dedic",
        "ations"
      ],
      [
        "aute",
        "ur"
      ],
      [
        "1",
        "5"
      ],
      [
        "m",
        "one"
      ],
      [
        "r",
        "än"
      ],
      [
        "t",
        "in"
      ],
      [
        "en",
        "ces"
      ],
      [
        "re",
        "cording"
      ],
      [
        "ex",
        "isting"
      ],
      [
        "fi",
        "ed"
      ],
      [
        "copy",
        "rights"
      ],
      [
        "wh",
        "ile"
      ],
      [
        "ac",
        "cu"
      ],
      [
        "ac",
        "cording"
      ],
      [
        "us",
        "age"
      ],
      [
        "wai",
        "ves"
      ],
      [
        "fore",
        "going"
      ],
      [
        "develop",
        "ed"
      ],
      [
        "cour",
        "ts"
      ],
      [
        "peri",
        "od"
      ],
      [
        "f",
        "on"
      ],
      [
        "h",
        "ab"
      ],
      [
        "p",
        "as"
      ],
      [
        "vi",
        "el"
      ],
      [
        "out",
        "put"
      ],
      [
        "ke",
        "it"
      ],
      [
        "consider",
        "ation"
      ],
      [
        "tis",
        "ing"
      ],
      [
        "bes",
        "timm"
      ],
      [
        "stru",
        "cture"
      ],
      [
        "explicit",
        "ly"
      ],
      [
        "err",
        "ors"
      ],
      [
        "adver",
        "tising"
      ],
      [
        "se",
        "arch"
      ],
      [
        "ce",
        "tte"
      ],
      [
        "mo",
        "de"
      ],
      [
        "me",
        "mber"
      ],
      [
        "ir",
        "ing"
      ],
      [
        "ib",
        "ly"
      ],
      [
        "enforce",
        "ability"
      ],
      [
        "men",
        "tion"
      ],
      [
        "incorpor",
        "ate"
      ],
      [
        "ju",
        "di"
      ],
      [
        "multi",
        "ple"
      ],
      [
        "ordin",
        "ary"
      ],
      [
        "i",
        "a"
      ],
      [
        "l",
        "ä"
      ],
      [
        "ü",
        "b"
      ],
      [
        "ro",
        "ss"
      ],
      [
        "si",
        "tion"
      ],
      [
        "per",
        "man"
      ],
      [
        "ap",
        "pro"
      ],
      [
        "copyright",
        "ed"
      ],
      [
        "non",
        "commercial"
      ],
      [
        "pla",
        "in"
      ],
      [
        "ste",
        "ps"
      ],
      [
        "ore",
        "cord"
      ],
      [
        "convey",
        "ed"
      ],
      [
        "phon",
        "orecord"
      ],
      [
        "priv",
        "ate"
      ],
      [
        "contr",
        "at"
      ],
      [
        "irrevoc",
        "able"
      ],
      [
        "mone",
        "tary"
      ],
      [
        "perman",
        "ent"
      ],
      [
        "5",
        "0"
      ],
      [
        "a",
        "k"
      ],
      [
        "g",
        "r"
      ],
      [
        "or",
        "al"
      ],
      [
        "st",
        "ance"
      ],
      [
        "vi",
        "ties"
      ],
      [
        "ac",
        "ces"
      ],
      [
        "public",
        "ity"
      ],
      [
        "bo",
        "dy"
      ],
      [
        "regard",
        "less"
      ],
      [
        "protect",
        "ed"
      ],
      [
        "acti",
        "vities"
      ],
      [
        "b",
        "ro"
      ],
      [
        "m",
        "any"
      ],
      [
        "p",
        "are"
      ],
      [
        "ab",
        "sol"
      ],
      [
        "be",
        "cause"
      ],
      [
        "sh",
        "ow"
      ],
      [
        "pre",
        "pare"
      ],
      [
        "leg",
        "ibly"
      ],
      [
        "im",
        "m"
      ],
      [
        "199",
        "9"
      ],
      [
        "vo",
        "id"
      ],
      [
        "maintain",
        "er"
      ],
      [
        "acquire",
        "d"
      ],
      [
        "down",
        "load"
      ],
      [
        "xy",
        "z"
      ],
      [
        "cla",
        "use"
      ],
      [
        "stre",
        "am"
      ],
      [
        "absol",
        "ute"
      ],
      [
        "m",
        "ü"
      ],
      [
        "r",
        "ing"
      ],
      [
        "u",
        "ally"
      ],
      [
        "th",
        "ough"
      ],
      [
        "li",
        "er"
      ],
      [
        "ver",
        "trag"
      ],
      [
        "ma",
        "xi"
      ],
      [
        "app",
        "en"
      ],
      [
        "addi",
        "tions"
      ],
      [
        "ho",
        "ld"
      ],
      [
        "interpre",
        "ted"
      ],
      [
        "gle",
        "ich"
      ],
      [
        "fon",
        "ts"
      ],
      [
        "maxi",
        "mum"
      ],
      [
        "a",
        "ctions"
      ],
      [
        "d",
        "ans"
      ],
      [
        "h",
        "um"
      ],
      [
        "th",
        "ree"
      ],
      [
        "re",
        "inst"
      ],
      [
        "de",
        "vi"
      ],
      [
        "fi",
        "c"
      ],
      [
        "do",
        "main"
      ],
      [
        "sch",
        "lie"
      ],
      [
        "we",
        "it"
      ],
      [
        "sy",
        "n"
      ],
      [
        "remain",
        "s"
      ],
      [
        "lin",
        "es"
      ],
      [
        "eng",
        "lish"
      ],
      [
        "vergüt",
        "ung"
      ],
      [
        "grou",
        "p"
      ],
      [
        "say",
        "ing"
      ],
      [
        "schlie",
        "ß"
      ],
      [
        "c",
        "n"
      ],
      [
        "d",
        "ür"
      ],
      [
        "k",
        "ann"
      ],
      [
        "p",
        "y"
      ],
      [
        "th",
        "on"
      ],
      [
        "ar",
        "an"
      ],
      [
        "de",
        "termin"
      ],
      [
        "wai",
        "ved"
      ],
      [
        "adapt",
        "ations"
      ],
      [
        "web",
        "site"
      ],
      [
        "excep",
        "tions"
      ],
      [
[...]
